#ifndef HUROB1_EMG_MODEL_H
#define HUROB1_EMG_MODEL_H
const unsigned char model_tflite[] = {28, 0, 0, 0, 84, 70, 76, 51, 20, 0, 32, 0, 28, 0, 24, 0, 20, 0, 16, 0, 12, 0, 0, 0, 8, 0, 4, 0, 20, 0, 0, 0, 28, 0, 0, 0, 140, 0, 0, 0, 228, 0, 0, 0, 8, 113, 4, 0, 24, 113, 4, 0, 208, 118, 4, 0, 3, 0, 0, 0, 1, 0, 0, 0, 16, 0, 0, 0, 0, 0, 10, 0, 16, 0, 12, 0, 8, 0, 4, 0, 10, 0, 0, 0, 12, 0, 0, 0, 28, 0, 0, 0, 56, 0, 0, 0, 15, 0, 0, 0, 115, 101, 114, 118, 105, 110, 103, 95, 100, 101, 102, 97, 117, 108, 116, 0, 1, 0, 0, 0, 4, 0, 0, 0, 156, 255, 255, 255, 10, 0, 0, 0, 4, 0, 0, 0, 7, 0, 0, 0, 100, 101, 110, 115, 101, 95, 50, 0, 1, 0, 0, 0, 4, 0, 0, 0, 218, 142, 251, 255, 4, 0, 0, 0, 7, 0, 0, 0, 105, 110, 112, 117, 116, 95, 49, 0, 2, 0, 0, 0, 52, 0, 0, 0, 4, 0, 0, 0, 220, 255, 255, 255, 13, 0, 0, 0, 4, 0, 0, 0, 19, 0, 0, 0, 67, 79, 78, 86, 69, 82, 83, 73, 79, 78, 95, 77, 69, 84, 65, 68, 65, 84, 65, 0, 8, 0, 12, 0, 8, 0, 4, 0, 8, 0, 0, 0, 12, 0, 0, 0, 4, 0, 0, 0, 19, 0, 0, 0, 109, 105, 110, 95, 114, 117, 110, 116, 105, 109, 101, 95, 118, 101, 114, 115, 105, 111, 110, 0, 14, 0, 0, 0, 32, 112, 4, 0, 24, 112, 4, 0, 8, 111, 4, 0, 232, 110, 4, 0, 216, 108, 4, 0, 200, 132, 0, 0, 184, 4, 0, 0, 168, 0, 0, 0, 160, 0, 0, 0, 152, 0, 0, 0, 144, 0, 0, 0, 136, 0, 0, 0, 104, 0, 0, 0, 4, 0, 0, 0, 134, 143, 251, 255, 4, 0, 0, 0, 84, 0, 0, 0, 12, 0, 0, 0, 8, 0, 14, 0, 8, 0, 4, 0, 8, 0, 0, 0, 16, 0, 0, 0, 36, 0, 0, 0, 0, 0, 6, 0, 8, 0, 4, 0, 6, 0, 0, 0, 4, 0, 0, 0, 0, 0, 0, 0, 0, 0, 10, 0, 16, 0, 12, 0, 8, 0, 4, 0, 10, 0, 0, 0, 2, 0, 0, 0, 2, 0, 0, 0, 4, 0, 0, 0, 6, 0, 0, 0, 50, 46, 49, 50, 46, 48, 0, 0, 230, 143, 251, 255, 4, 0, 0, 0, 16, 0, 0, 0, 49, 46, 53, 46, 48, 0, 0, 0, 0, 0, 0, 0, 0, 0, 0, 0, 244, 138, 251, 255, 248, 138, 251, 255, 252, 138, 251, 255, 0, 139, 251, 255, 18, 144, 251, 255, 4, 0, 0, 0, 0, 4, 0, 0, 248, 44, 139, 189, 205, 78, 30, 190, 28, 225, 111, 61, 20, 128, 91, 62, 146, 250, 36, 190, 241, 2, 131, 62, 44, 188, 232, 188, 115, 46, 104, 62, 236, 185, 126, 62, 19, 65, 68, 190, 52, 61, 51, 189, 195, 62, 24, 190, 203, 148, 114, 62, 22, 96, 169, 61, 188, 199, 155, 62, 23, 164, 39, 190, 173, 34, 197, 188, 145, 169, 17, 190, 213, 181, 139, 62, 64, 192, 243, 188, 135, 253, 179, 61, 12, 95, 10, 62, 143, 151, 138, 61, 20, 207, 142, 61, 19, 155, 141, 61, 128, 247, 71, 62, 16, 206, 146, 189, 27, 129, 75, 62, 67, 36, 33, 62, 219, 7, 101, 189, 226, 145, 62, 190, 28, 87, 198, 188, 107, 10, 86, 190, 223, 46, 40, 62, 92, 146, 164, 190, 91, 170, 183, 61, 229, 22, 49, 60, 53, 147, 185, 61, 27, 192, 69, 62, 18, 248, 113, 190, 212, 110, 120, 190, 250, 117, 134, 61, 212, 155, 38, 190, 64, 26, 163, 61, 121, 38, 128, 62, 168, 41, 75, 186, 147, 185, 165, 61, 106, 38, 8, 190, 143, 82, 114, 190, 209, 117, 130, 62, 129, 124, 13, 61, 251, 152, 74, 190, 237, 217, 240, 189, 52, 193, 168, 59, 65, 117, 62, 190, 246, 119, 48, 190, 60, 6, 93, 62, 195, 27, 74, 62, 55, 88, 40, 190, 56, 36, 162, 61, 144, 181, 217, 189, 177, 232, 53, 190, 140, 11, 211, 60, 83, 181, 105, 62, 36, 228, 107, 190, 249, 18, 27, 62, 137, 74, 185, 189, 140, 134, 7, 190, 204, 59, 15, 62, 137, 170, 58, 62, 22, 212, 25, 190, 200, 118, 100, 62, 182, 135, 62, 190, 78, 71, 68, 62, 128, 36, 142, 190, 59, 72, 149, 190, 123, 87, 205, 59, 120, 175, 102, 62, 40, 20, 145, 190, 119, 131, 172, 190, 55, 133, 191, 188, 165, 203, 235, 188, 200, 93, 65, 62, 180, 72, 93, 62, 159, 201, 217, 189, 96, 150, 62, 188, 220, 181, 93, 190, 15, 89, 47, 61, 122, 128, 129, 190, 160, 143, 86, 60, 69, 5, 28, 187, 119, 242, 77, 190, 192, 76, 105, 62, 219, 238, 108, 188, 142, 48, 125, 188, 74, 78, 69, 59, 191, 154, 123, 190, 116, 194, 25, 62, 227, 225, 152, 61, 164, 14, 169, 59, 124, 249, 156, 189, 136, 125, 2, 60, 152, 148, 48, 62, 192, 124, 165, 60, 223, 24, 180, 188, 11, 209, 128, 190, 166, 0, 62, 189, 167, 121, 220, 60, 254, 138, 17, 60, 94, 226, 34, 190, 252, 221, 20, 190, 50, 154, 160, 189, 195, 223, 53, 190, 74, 20, 130, 190, 39, 109, 116, 190, 103, 237, 72, 190, 107, 200, 154, 190, 26, 212, 35, 62, 216, 221, 125, 189, 208, 207, 180, 189, 181, 30, 173, 190, 95, 128, 136, 190, 168, 17, 131, 188, 236, 214, 12, 190, 96, 40, 233, 188, 230, 54, 51, 61, 169, 129, 162, 60, 2, 95, 105, 61, 77, 231, 45, 190, 170, 123, 138, 190, 57, 241, 171, 60, 187, 43, 115, 62, 113, 2, 0, 190, 106, 237, 157, 61, 213, 112, 238, 189, 137, 20, 235, 61, 168, 103, 157, 61, 104, 255, 91, 62, 151, 100, 118, 189, 160, 106, 76, 190, 12, 208, 155, 190, 223, 0, 82, 62, 234, 248, 25, 189, 90, 117, 171, 62, 132, 238, 243, 61, 239, 229, 106, 190, 78, 109, 164, 60, 104, 195, 133, 62, 44, 20, 132, 190, 96, 83, 121, 188, 207, 103, 124, 190, 236, 221, 222, 187, 223, 103, 154, 190, 64, 167, 211, 188, 35, 186, 38, 62, 23, 152, 36, 62, 234, 159, 144, 62, 40, 124, 222, 188, 251, 222, 163, 62, 182, 231, 43, 62, 26, 234, 66, 190, 28, 125, 158, 190, 166, 224, 127, 190, 7, 90, 214, 189, 63, 154, 88, 62, 144, 181, 164, 190, 79, 118, 8, 190, 8, 205, 127, 62, 182, 132, 209, 189, 74, 76, 90, 62, 166, 81, 156, 62, 65, 29, 88, 61, 98, 139, 144, 190, 122, 133, 128, 62, 4, 33, 79, 190, 28, 61, 145, 62, 203, 160, 4, 62, 179, 5, 158, 189, 160, 140, 162, 62, 123, 179, 212, 188, 56, 192, 134, 62, 114, 129, 149, 190, 51, 100, 148, 190, 244, 152, 115, 62, 46, 205, 92, 190, 10, 242, 170, 61, 189, 197, 132, 190, 229, 130, 182, 61, 184, 6, 135, 62, 11, 52, 152, 190, 5, 157, 32, 190, 77, 183, 6, 62, 38, 113, 86, 61, 200, 47, 199, 189, 210, 84, 58, 190, 194, 126, 34, 62, 235, 83, 225, 188, 78, 22, 1, 62, 112, 110, 103, 188, 113, 105, 155, 188, 232, 144, 189, 61, 14, 240, 124, 190, 168, 157, 137, 189, 209, 44, 189, 189, 149, 251, 13, 62, 167, 217, 9, 62, 254, 232, 24, 62, 0, 12, 40, 62, 212, 49, 232, 189, 57, 148, 14, 62, 70, 71, 242, 189, 0, 29, 231, 60, 73, 230, 96, 190, 128, 159, 145, 60, 41, 125, 155, 189, 202, 81, 40, 62, 75, 139, 188, 189, 6, 159, 227, 189, 7, 113, 24, 62, 247, 200, 102, 190, 26, 4, 3, 62, 158, 102, 124, 189, 7, 14, 231, 189, 190, 72, 106, 190, 104, 120, 146, 62, 176, 220, 75, 62, 115, 4, 58, 62, 196, 23, 93, 62, 128, 111, 166, 61, 78, 96, 137, 62, 150, 184, 228, 61, 0, 152, 146, 190, 200, 111, 111, 61, 104, 73, 109, 60, 135, 173, 173, 190, 114, 245, 147, 190, 27, 115, 177, 189, 244, 199, 106, 190, 100, 215, 162, 189, 212, 224, 143, 61, 255, 174, 72, 62, 159, 21, 1, 190, 71, 29, 137, 61, 191, 194, 103, 62, 81, 188, 125, 60, 54, 126, 117, 61, 112, 4, 67, 61, 184, 65, 93, 62, 159, 206, 129, 189, 14, 241, 160, 189, 29, 150, 58, 62, 107, 141, 150, 190, 128, 244, 73, 190, 2, 115, 215, 188, 150, 126, 163, 62, 0, 254, 127, 190, 30, 148, 251, 255, 4, 0, 0, 0, 0, 128, 0, 0, 23, 13, 134, 61, 228, 160, 156, 61, 241, 25, 13, 190, 51, 55, 15, 62, 50, 182, 127, 189, 15, 197, 36, 62, 92, 55, 26, 61, 35, 236, 214, 189, 47, 138, 179, 187, 63, 235, 51, 62, 173, 186, 208, 60, 177, 170, 117, 61, 230, 148, 129, 61, 88, 123, 3, 189, 36, 185, 98, 189, 214, 227, 59, 61, 166, 217, 192, 61, 115, 227, 71, 61, 168, 38, 196, 188, 171, 57, 24, 190, 194, 73, 241, 61, 179, 152, 20, 62, 122, 57, 16, 62, 48, 43, 4, 189, 16, 76, 44, 190, 224, 236, 73, 188, 32, 203, 184, 60, 193, 205, 12, 62, 92, 177, 137, 61, 147, 51, 181, 189, 119, 153, 42, 62, 164, 19, 253, 189, 4, 22, 230, 184, 196, 169, 243, 61, 191, 237, 135, 189, 158, 139, 90, 189, 246, 25, 223, 189, 11, 23, 149, 61, 184, 55, 19, 62, 49, 20, 144, 189, 32, 174, 34, 190, 112, 182, 88, 188, 6, 12, 58, 189, 192, 191, 136, 61, 78, 116, 231, 61, 30, 167, 59, 190, 104, 230, 156, 60, 26, 109, 216, 61, 20, 42, 124, 61, 205, 24, 227, 61, 214, 91, 205, 61, 192, 61, 72, 187, 125, 43, 1, 190, 14, 184, 145, 61, 128, 190, 251, 188, 185, 193, 72, 189, 122, 146, 158, 61, 32, 152, 24, 188, 138, 230, 13, 190, 198, 104, 228, 61, 236, 38, 55, 61, 205, 103, 187, 189, 56, 179, 97, 61, 68, 63, 104, 188, 226, 247, 207, 61, 34, 183, 219, 189, 7, 166, 17, 190, 236, 189, 49, 190, 107, 77, 187, 189, 87, 54, 6, 190, 127, 20, 12, 62, 245, 123, 150, 61, 16, 147, 248, 189, 136, 161, 143, 189, 95, 192, 198, 61, 186, 86, 66, 190, 240, 52, 53, 189, 64, 3, 166, 59, 51, 69, 36, 62, 156, 144, 234, 188, 184, 209, 175, 60, 65, 112, 41, 188, 203, 0, 173, 189, 250, 98, 48, 190, 48, 240, 4, 190, 224, 4, 169, 187, 36, 180, 224, 188, 177, 165, 41, 62, 96, 217, 138, 188, 46, 31, 86, 189, 9, 195, 28, 62, 170, 187, 3, 62, 97, 237, 10, 62, 90, 197, 248, 189, 2, 199, 32, 190, 6, 8, 134, 189, 217, 135, 252, 189, 73, 196, 13, 62, 16, 74, 105, 188, 8, 27, 153, 188, 92, 41, 241, 189, 212, 161, 180, 61, 144, 198, 95, 189, 248, 39, 251, 188, 255, 62, 194, 189, 200, 5, 163, 60, 69, 246, 1, 62, 79, 111, 129, 189, 234, 86, 9, 62, 215, 94, 46, 190, 80, 108, 193, 61, 100, 75, 245, 189, 5, 34, 221, 189, 84, 230, 128, 61, 10, 0, 114, 188, 237, 237, 20, 62, 33, 46, 212, 189, 40, 101, 58, 189, 136, 66, 172, 60, 31, 99, 224, 189, 188, 116, 165, 189, 231, 55, 48, 61, 249, 78, 254, 189, 74, 91, 134, 189, 232, 164, 96, 189, 188, 223, 44, 189, 72, 107, 143, 188, 178, 74, 1, 190, 203, 165, 210, 189, 85, 186, 56, 190, 250, 22, 181, 61, 13, 213, 41, 190, 96, 245, 53, 190, 160, 159, 220, 60, 208, 40, 191, 60, 167, 59, 240, 61, 121, 201, 72, 61, 220, 213, 30, 189, 9, 10, 49, 190, 6, 77, 149, 189, 116, 250, 180, 189, 50, 87, 22, 61, 234, 234, 147, 61, 192, 136, 101, 61, 153, 222, 12, 62, 106, 180, 86, 188, 81, 253, 26, 190, 223, 78, 149, 61, 232, 128, 48, 61, 8, 151, 244, 189, 32, 220, 128, 189, 217, 232, 9, 190, 226, 241, 223, 189, 145, 48, 18, 62, 6, 34, 161, 61, 252, 229, 19, 62, 120, 92, 93, 61, 188, 232, 150, 61, 246, 90, 129, 61, 221, 243, 223, 189, 34, 83, 84, 61, 80, 226, 146, 189, 95, 128, 182, 61, 69, 197, 193, 61, 96, 77, 39, 190, 10, 197, 64, 61, 108, 254, 189, 61, 177, 7, 45, 60, 154, 13, 160, 189, 222, 12, 153, 61, 12, 226, 244, 61, 19, 164, 68, 189, 44, 175, 213, 189, 225, 203, 33, 62, 194, 221, 27, 190, 42, 245, 252, 61, 40, 141, 58, 190, 85, 183, 70, 189, 92, 231, 180, 189, 129, 169, 239, 189, 148, 141, 33, 189, 214, 36, 169, 61, 80, 102, 208, 189, 50, 179, 1, 190, 215, 60, 167, 189, 102, 162, 136, 61, 80, 176, 250, 60, 169, 28, 30, 62, 40, 10, 216, 189, 192, 170, 86, 61, 209, 254, 31, 190, 63, 83, 77, 188, 66, 61, 30, 190, 99, 183, 32, 61, 54, 69, 172, 189, 90, 119, 130, 187, 8, 121, 81, 189, 104, 76, 136, 189, 91, 28, 142, 189, 142, 210, 174, 188, 99, 193, 38, 190, 145, 170, 170, 189, 40, 210, 239, 189, 244, 55, 126, 61, 233, 176, 116, 61, 244, 201, 3, 62, 147, 170, 20, 190, 154, 170, 247, 59, 35, 66, 40, 190, 233, 206, 224, 61, 212, 132, 15, 189, 252, 90, 10, 61, 72, 93, 39, 190, 199, 121, 4, 62, 181, 46, 81, 189, 122, 173, 237, 189, 84, 46, 54, 61, 86, 74, 235, 61, 159, 32, 7, 62, 17, 143, 135, 188, 240, 146, 219, 60, 240, 162, 3, 61, 208, 144, 110, 61, 137, 6, 0, 61, 161, 221, 151, 61, 86, 220, 203, 61, 7, 124, 12, 190, 165, 103, 98, 188, 183, 219, 6, 62, 235, 232, 167, 189, 12, 47, 22, 62, 182, 188, 236, 61, 121, 241, 127, 189, 92, 6, 12, 190, 33, 59, 189, 61, 190, 80, 198, 61, 31, 6, 67, 61, 64, 112, 122, 189, 187, 20, 213, 61, 253, 26, 222, 189, 168, 105, 23, 189, 107, 246, 250, 188, 252, 52, 215, 60, 204, 91, 77, 61, 152, 52, 111, 61, 10, 57, 167, 61, 186, 145, 232, 189, 112, 7, 125, 61, 29, 163, 178, 189, 134, 141, 212, 61, 1, 62, 43, 190, 83, 92, 127, 188, 23, 138, 250, 61, 172, 82, 155, 61, 69, 159, 224, 189, 178, 75, 203, 61, 156, 233, 13, 62, 146, 52, 94, 189, 158, 64, 168, 61, 74, 58, 15, 190, 157, 252, 41, 189, 92, 9, 34, 189, 169, 184, 50, 190, 141, 125, 220, 189, 223, 122, 137, 189, 102, 207, 164, 61, 11, 255, 17, 62, 128, 117, 29, 189, 109, 152, 56, 190, 165, 6, 131, 61, 120, 8, 218, 61, 247, 190, 54, 189, 182, 187, 3, 190, 199, 163, 4, 189, 118, 181, 145, 188, 192, 108, 147, 187, 94, 230, 163, 61, 117, 29, 27, 62, 228, 101, 102, 61, 95, 113, 102, 61, 99, 110, 32, 62, 144, 203, 11, 189, 244, 171, 63, 189, 91, 230, 16, 62, 32, 11, 36, 190, 129, 158, 77, 61, 67, 200, 194, 189, 236, 1, 147, 61, 157, 159, 12, 190, 211, 11, 31, 190, 64, 220, 201, 188, 60, 121, 45, 189, 214, 251, 36, 190, 219, 77, 203, 188, 113, 203, 32, 190, 84, 160, 215, 189, 63, 104, 216, 61, 47, 115, 51, 62, 120, 188, 210, 189, 166, 70, 25, 61, 80, 201, 88, 61, 241, 94, 203, 60, 117, 61, 209, 189, 48, 222, 57, 189, 252, 228, 11, 62, 193, 1, 26, 62, 99, 61, 31, 62, 174, 148, 33, 189, 166, 185, 192, 61, 163, 41, 150, 189, 81, 114, 52, 190, 141, 115, 37, 190, 251, 90, 3, 190, 66, 162, 174, 61, 222, 176, 205, 61, 56, 34, 75, 61, 131, 185, 1, 190, 78, 11, 140, 61, 60, 222, 125, 61, 142, 93, 199, 61, 65, 109, 160, 61, 12, 75, 184, 189, 178, 202, 43, 190, 93, 69, 153, 61, 36, 86, 163, 189, 228, 116, 113, 61, 172, 55, 86, 61, 83, 179, 12, 190, 165, 49, 138, 61, 65, 147, 7, 190, 17, 196, 22, 62, 39, 12, 157, 61, 120, 219, 114, 61, 176, 7, 6, 62, 136, 219, 7, 61, 125, 44, 173, 61, 0, 153, 206, 186, 238, 133, 191, 61, 52, 22, 165, 189, 40, 236, 52, 190, 127, 232, 62, 190, 60, 173, 74, 189, 151, 226, 45, 190, 198, 254, 3, 61, 118, 37, 41, 190, 173, 113, 32, 62, 152, 247, 141, 60, 253, 118, 195, 189, 32, 97, 242, 189, 88, 81, 170, 188, 35, 19, 207, 61, 234, 137, 146, 60, 236, 219, 141, 61, 127, 241, 10, 62, 225, 89, 237, 189, 108, 110, 241, 188, 112, 163, 72, 189, 20, 209, 1, 190, 16, 247, 210, 61, 64, 134, 35, 187, 134, 185, 3, 60, 165, 101, 238, 188, 251, 28, 249, 61, 174, 116, 226, 189, 254, 245, 148, 61, 73, 150, 42, 62, 29, 90, 123, 61, 56, 17, 117, 61, 215, 82, 40, 62, 22, 136, 15, 190, 206, 114, 158, 61, 78, 133, 8, 190, 217, 17, 10, 190, 142, 168, 32, 190, 182, 50, 250, 61, 149, 202, 31, 62, 133, 86, 38, 62, 180, 1, 20, 189, 131, 122, 2, 62, 152, 177, 128, 189, 119, 157, 245, 189, 202, 154, 96, 61, 159, 83, 18, 62, 48, 230, 177, 188, 50, 220, 141, 61, 88, 180, 183, 61, 44, 78, 116, 61, 54, 192, 114, 189, 230, 50, 3, 62, 42, 213, 50, 190, 200, 59, 107, 61, 167, 105, 163, 189, 115, 84, 207, 187, 249, 251, 41, 62, 242, 54, 235, 189, 83, 56, 131, 189, 19, 162, 149, 189, 123, 234, 14, 189, 13, 197, 35, 62, 57, 202, 32, 59, 238, 181, 247, 61, 133, 155, 19, 190, 162, 212, 48, 61, 199, 92, 16, 190, 237, 9, 10, 62, 84, 186, 222, 189, 193, 57, 243, 61, 119, 249, 15, 62, 99, 128, 222, 61, 190, 255, 201, 61, 215, 223, 207, 61, 187, 84, 38, 61, 193, 168, 35, 62, 165, 246, 177, 61, 238, 30, 166, 61, 64, 149, 242, 187, 178, 85, 2, 190, 97, 106, 155, 189, 94, 50, 45, 189, 77, 228, 250, 61, 123, 166, 199, 61, 158, 12, 3, 62, 245, 12, 10, 190, 170, 184, 81, 62, 75, 64, 185, 189, 14, 178, 191, 59, 46, 228, 175, 61, 207, 28, 32, 62, 184, 188, 17, 189, 0, 89, 178, 188, 93, 104, 252, 61, 141, 209, 46, 62, 98, 105, 24, 62, 86, 234, 144, 61, 227, 210, 29, 190, 195, 151, 137, 189, 216, 167, 129, 189, 59, 175, 181, 189, 46, 75, 28, 189, 197, 206, 105, 61, 0, 250, 38, 188, 33, 159, 248, 61, 230, 244, 135, 189, 34, 132, 241, 189, 84, 242, 64, 189, 219, 208, 23, 62, 46, 84, 191, 60, 160, 195, 7, 189, 247, 180, 235, 61, 242, 153, 216, 189, 45, 229, 18, 190, 38, 191, 131, 61, 78, 184, 195, 61, 236, 123, 6, 189, 12, 168, 215, 189, 100, 236, 3, 190, 75, 179, 4, 190, 194, 231, 211, 61, 40, 95, 170, 60, 6, 178, 70, 61, 89, 218, 223, 189, 46, 50, 112, 189, 71, 228, 132, 189, 77, 153, 33, 62, 78, 174, 252, 189, 29, 104, 23, 61, 119, 15, 3, 190, 185, 177, 20, 190, 25, 126, 142, 61, 54, 241, 220, 61, 96, 48, 52, 62, 213, 164, 164, 60, 50, 164, 31, 190, 192, 125, 237, 59, 200, 235, 140, 60, 167, 126, 251, 189, 129, 37, 26, 62, 156, 148, 31, 190, 223, 187, 149, 189, 193, 163, 230, 61, 124, 15, 54, 189, 102, 47, 21, 190, 234, 229, 8, 62, 100, 188, 48, 62, 152, 69, 19, 190, 205, 210, 2, 190, 122, 39, 49, 62, 186, 48, 244, 189, 144, 182, 13, 189, 4, 19, 186, 189, 202, 172, 34, 62, 177, 12, 154, 189, 92, 32, 35, 61, 122, 232, 24, 61, 106, 76, 144, 59, 92, 111, 166, 60, 151, 158, 152, 189, 245, 169, 70, 189, 5, 53, 103, 189, 8, 116, 250, 188, 175, 215, 136, 189, 216, 6, 218, 188, 243, 38, 6, 62, 21, 203, 40, 62, 190, 44, 254, 61, 136, 144, 188, 189, 211, 1, 77, 61, 41, 153, 0, 190, 140, 53, 60, 189, 253, 138, 133, 187, 6, 164, 152, 61, 246, 77, 218, 61, 208, 129, 30, 61, 105, 197, 224, 60, 73, 74, 24, 62, 153, 154, 184, 61, 2, 124, 6, 62, 128, 76, 183, 188, 31, 127, 41, 62, 17, 96, 118, 189, 41, 143, 244, 61, 24, 213, 212, 189, 139, 231, 193, 189, 28, 188, 64, 190, 52, 168, 232, 61, 7, 32, 238, 61, 156, 17, 79, 189, 109, 147, 131, 60, 223, 187, 130, 189, 160, 168, 124, 61, 235, 32, 144, 188, 107, 196, 12, 189, 64, 112, 11, 62, 152, 155, 186, 188, 92, 9, 240, 189, 144, 95, 210, 61, 71, 171, 20, 62, 25, 185, 48, 62, 38, 240, 209, 61, 226, 181, 135, 189, 67, 63, 17, 62, 58, 252, 227, 189, 242, 16, 248, 61, 132, 102, 15, 61, 221, 86, 238, 189, 20, 114, 183, 58, 89, 207, 14, 62, 187, 208, 224, 60, 250, 142, 204, 189, 33, 144, 183, 61, 163, 243, 175, 189, 10, 163, 190, 189, 111, 153, 208, 61, 116, 246, 13, 190, 248, 121, 188, 188, 38, 114, 18, 62, 17, 94, 43, 62, 201, 15, 16, 62, 149, 46, 237, 188, 160, 190, 46, 190, 50, 139, 30, 188, 156, 79, 141, 61, 99, 98, 137, 189, 105, 72, 68, 190, 191, 249, 24, 189, 68, 1, 57, 189, 31, 234, 21, 190, 58, 46, 59, 190, 208, 159, 129, 189, 78, 41, 20, 190, 188, 200, 77, 61, 142, 175, 152, 61, 188, 8, 15, 189, 117, 216, 203, 189, 195, 68, 162, 189, 141, 188, 111, 189, 248, 83, 73, 189, 68, 196, 75, 190, 230, 228, 187, 61, 247, 154, 54, 190, 160, 134, 208, 187, 242, 104, 133, 61, 80, 226, 71, 61, 207, 224, 126, 61, 161, 55, 198, 61, 96, 142, 54, 61, 9, 128, 73, 60, 29, 105, 25, 190, 211, 85, 161, 189, 165, 200, 159, 188, 126, 75, 192, 61, 120, 176, 91, 189, 180, 61, 251, 189, 174, 14, 14, 62, 124, 200, 67, 61, 125, 73, 12, 62, 238, 108, 137, 60, 246, 135, 233, 61, 193, 184, 23, 190, 107, 152, 56, 190, 66, 187, 146, 61, 84, 36, 66, 61, 165, 166, 1, 62, 245, 179, 18, 190, 119, 22, 37, 62, 5, 136, 200, 189, 166, 194, 127, 189, 145, 131, 130, 189, 65, 130, 1, 190, 189, 135, 102, 189, 251, 52, 140, 61, 137, 146, 40, 61, 8, 94, 139, 188, 37, 41, 26, 62, 134, 42, 253, 61, 164, 93, 21, 189, 168, 119, 13, 61, 139, 155, 147, 189, 160, 224, 253, 189, 202, 46, 118, 189, 122, 194, 220, 60, 33, 9, 176, 60, 106, 129, 47, 61, 226, 228, 135, 189, 56, 240, 149, 60, 99, 237, 28, 62, 64, 191, 21, 62, 43, 160, 36, 62, 108, 13, 71, 61, 144, 70, 132, 188, 98, 70, 242, 61, 161, 55, 23, 62, 96, 161, 28, 60, 163, 91, 233, 61, 125, 124, 232, 61, 2, 215, 238, 189, 244, 90, 135, 61, 212, 54, 226, 189, 236, 180, 254, 189, 83, 43, 233, 189, 158, 49, 199, 61, 139, 229, 199, 61, 240, 112, 25, 189, 84, 10, 25, 188, 249, 39, 155, 61, 187, 83, 35, 190, 33, 31, 26, 62, 207, 255, 237, 188, 72, 153, 110, 59, 174, 102, 228, 61, 174, 250, 224, 60, 253, 46, 47, 62, 1, 155, 108, 62, 195, 204, 9, 62, 74, 109, 49, 190, 5, 245, 37, 190, 96, 181, 27, 189, 208, 203, 9, 62, 45, 148, 241, 189, 101, 3, 182, 189, 190, 73, 151, 189, 248, 196, 176, 60, 173, 5, 130, 61, 159, 35, 128, 189, 143, 219, 155, 189, 80, 18, 126, 60, 198, 242, 22, 62, 2, 105, 235, 189, 56, 243, 176, 188, 115, 179, 238, 189, 163, 23, 170, 189, 200, 254, 147, 188, 171, 46, 93, 189, 110, 134, 77, 188, 158, 221, 49, 189, 75, 92, 180, 61, 129, 90, 154, 60, 231, 207, 100, 62, 189, 158, 7, 190, 198, 180, 103, 61, 250, 196, 219, 61, 4, 137, 186, 61, 188, 194, 203, 61, 48, 16, 54, 188, 112, 151, 248, 60, 185, 252, 208, 61, 28, 25, 175, 189, 0, 80, 137, 61, 156, 167, 151, 189, 77, 84, 176, 189, 50, 29, 129, 61, 139, 120, 121, 189, 125, 60, 132, 189, 90, 132, 238, 189, 65, 197, 111, 61, 180, 67, 32, 62, 94, 142, 191, 61, 214, 73, 163, 61, 27, 47, 35, 62, 205, 248, 16, 62, 232, 115, 206, 60, 208, 146, 96, 60, 183, 205, 149, 189, 81, 157, 249, 189, 101, 39, 244, 60, 12, 52, 31, 188, 80, 161, 218, 189, 27, 41, 106, 61, 128, 232, 122, 188, 0, 162, 119, 186, 159, 19, 20, 62, 176, 216, 169, 188, 145, 175, 201, 61, 150, 203, 206, 189, 163, 44, 36, 62, 91, 72, 18, 61, 9, 158, 37, 62, 31, 19, 36, 62, 192, 126, 100, 187, 189, 55, 43, 190, 144, 239, 167, 60, 228, 222, 164, 61, 114, 91, 210, 61, 209, 32, 231, 189, 226, 98, 121, 60, 209, 179, 0, 62, 119, 188, 45, 190, 74, 25, 24, 190, 8, 96, 108, 189, 94, 45, 168, 61, 20, 150, 79, 189, 220, 45, 217, 189, 56, 99, 106, 61, 126, 211, 135, 61, 225, 162, 173, 189, 100, 207, 18, 187, 221, 245, 48, 190, 178, 121, 39, 190, 111, 49, 68, 61, 187, 39, 231, 61, 5, 217, 40, 62, 239, 156, 8, 189, 147, 196, 7, 190, 146, 76, 48, 190, 42, 78, 231, 61, 98, 225, 216, 189, 222, 191, 47, 189, 240, 121, 253, 188, 42, 23, 179, 189, 125, 191, 174, 61, 133, 246, 20, 190, 93, 52, 38, 62, 37, 251, 13, 190, 80, 207, 234, 61, 98, 43, 48, 190, 78, 140, 242, 61, 14, 25, 214, 61, 118, 95, 87, 189, 192, 148, 5, 189, 52, 140, 148, 189, 45, 38, 39, 62, 193, 160, 22, 62, 81, 50, 42, 190, 171, 33, 100, 61, 35, 38, 142, 189, 137, 19, 5, 62, 207, 37, 189, 189, 58, 141, 244, 61, 57, 211, 24, 190, 84, 149, 163, 189, 35, 90, 159, 189, 163, 118, 13, 62, 226, 170, 58, 62, 134, 90, 171, 61, 96, 12, 153, 187, 13, 122, 227, 188, 42, 107, 57, 62, 133, 39, 2, 62, 22, 124, 120, 189, 241, 115, 219, 189, 33, 195, 243, 189, 18, 50, 40, 62, 251, 82, 8, 190, 16, 156, 234, 189, 196, 216, 37, 190, 31, 182, 234, 61, 174, 20, 59, 62, 134, 234, 28, 61, 85, 97, 243, 189, 107, 94, 34, 62, 127, 37, 167, 60, 182, 28, 23, 62, 24, 162, 136, 189, 104, 63, 21, 189, 27, 151, 248, 61, 38, 232, 246, 61, 128, 80, 192, 188, 69, 105, 201, 61, 185, 71, 41, 62, 136, 210, 253, 60, 60, 69, 20, 62, 232, 223, 236, 61, 102, 81, 255, 60, 110, 178, 137, 61, 49, 13, 173, 189, 89, 220, 103, 189, 150, 36, 192, 189, 93, 251, 25, 62, 215, 98, 8, 62, 178, 20, 70, 61, 189, 162, 177, 189, 8, 144, 78, 60, 160, 229, 139, 60, 116, 217, 14, 190, 189, 127, 212, 189, 198, 214, 183, 189, 230, 220, 232, 61, 133, 213, 218, 60, 218, 54, 238, 61, 37, 35, 162, 189, 185, 87, 23, 62, 18, 199, 96, 189, 77, 11, 233, 61, 11, 39, 9, 62, 186, 137, 131, 61, 241, 131, 253, 61, 204, 98, 172, 189, 37, 60, 11, 62, 142, 197, 159, 61, 88, 65, 222, 188, 116, 110, 74, 189, 62, 132, 168, 189, 151, 199, 140, 189, 62, 204, 160, 61, 192, 254, 149, 189, 157, 11, 169, 189, 58, 9, 228, 61, 178, 153, 110, 189, 48, 62, 90, 189, 219, 152, 161, 189, 147, 108, 222, 61, 133, 115, 4, 62, 186, 44, 3, 190, 3, 3, 116, 61, 139, 187, 95, 189, 15, 213, 177, 189, 7, 187, 30, 190, 69, 16, 155, 61, 133, 50, 22, 62, 121, 226, 205, 189, 180, 3, 212, 189, 8, 253, 83, 61, 8, 19, 121, 61, 200, 206, 61, 61, 6, 72, 146, 189, 171, 107, 89, 60, 112, 119, 193, 60, 65, 20, 21, 62, 128, 203, 80, 59, 177, 7, 124, 189, 99, 225, 5, 62, 171, 147, 35, 190, 210, 106, 87, 189, 71, 193, 226, 61, 169, 96, 219, 60, 234, 222, 254, 188, 117, 51, 135, 189, 127, 38, 125, 61, 67, 7, 153, 189, 112, 130, 25, 62, 205, 221, 47, 186, 74, 126, 142, 189, 83, 49, 177, 60, 146, 100, 156, 61, 112, 98, 247, 188, 74, 115, 49, 190, 39, 160, 241, 61, 234, 19, 251, 61, 211, 83, 74, 61, 86, 120, 14, 190, 236, 202, 49, 61, 226, 121, 155, 188, 133, 157, 249, 189, 186, 73, 158, 61, 208, 234, 32, 188, 138, 78, 31, 190, 119, 155, 23, 62, 224, 119, 22, 190, 120, 192, 90, 61, 210, 13, 36, 61, 245, 202, 37, 190, 254, 137, 78, 190, 178, 237, 182, 61, 95, 201, 240, 189, 21, 28, 51, 62, 240, 233, 1, 190, 222, 64, 85, 188, 105, 155, 147, 189, 62, 89, 171, 61, 69, 113, 22, 61, 201, 223, 10, 62, 17, 244, 44, 62, 222, 139, 181, 61, 226, 72, 133, 61, 160, 244, 218, 61, 244, 69, 20, 190, 222, 225, 215, 61, 44, 254, 17, 189, 161, 165, 244, 189, 255, 48, 14, 62, 167, 103, 53, 190, 204, 33, 97, 189, 166, 119, 216, 61, 230, 46, 36, 62, 47, 210, 168, 57, 14, 221, 233, 61, 96, 98, 143, 61, 116, 177, 38, 190, 190, 82, 85, 189, 62, 79, 123, 189, 243, 141, 45, 62, 52, 192, 45, 189, 224, 218, 1, 62, 162, 148, 175, 189, 206, 5, 185, 61, 39, 102, 217, 186, 182, 44, 32, 190, 64, 49, 118, 187, 194, 96, 253, 61, 58, 13, 206, 189, 170, 78, 22, 190, 153, 206, 224, 61, 100, 24, 24, 190, 236, 82, 49, 186, 150, 98, 19, 62, 216, 251, 60, 61, 164, 47, 179, 189, 36, 64, 70, 61, 83, 89, 7, 190, 112, 61, 187, 61, 80, 165, 123, 60, 231, 42, 179, 59, 143, 72, 49, 189, 120, 50, 58, 61, 239, 180, 99, 59, 184, 191, 31, 190, 120, 192, 160, 60, 160, 143, 42, 190, 56, 84, 86, 61, 128, 173, 171, 188, 169, 195, 15, 190, 116, 233, 24, 189, 58, 162, 211, 61, 27, 25, 254, 189, 216, 227, 36, 189, 32, 197, 212, 59, 14, 214, 201, 61, 200, 80, 175, 188, 16, 32, 234, 188, 0, 246, 241, 185, 184, 109, 70, 59, 188, 27, 20, 189, 196, 108, 155, 189, 221, 45, 207, 60, 191, 75, 18, 62, 112, 136, 176, 60, 204, 182, 119, 61, 238, 33, 204, 189, 5, 244, 64, 60, 108, 157, 138, 189, 46, 225, 204, 189, 164, 92, 217, 61, 111, 78, 141, 189, 62, 25, 234, 189, 224, 214, 81, 60, 77, 139, 177, 61, 39, 177, 13, 62, 4, 236, 221, 189, 80, 155, 197, 188, 44, 6, 209, 189, 49, 233, 86, 60, 140, 171, 65, 61, 196, 34, 47, 190, 121, 32, 252, 61, 64, 194, 57, 59, 214, 231, 194, 61, 160, 74, 13, 189, 193, 34, 41, 189, 244, 235, 113, 61, 216, 195, 244, 189, 132, 140, 52, 190, 42, 77, 246, 189, 102, 178, 51, 190, 132, 209, 167, 61, 180, 218, 164, 61, 158, 167, 14, 62, 240, 227, 90, 188, 224, 21, 22, 188, 221, 6, 146, 189, 8, 93, 31, 190, 211, 2, 11, 190, 232, 68, 46, 189, 217, 148, 23, 61, 180, 36, 75, 61, 199, 237, 192, 189, 6, 178, 175, 189, 32, 81, 204, 189, 80, 185, 6, 190, 103, 120, 169, 189, 226, 18, 216, 188, 131, 9, 234, 189, 31, 73, 4, 62, 62, 137, 173, 61, 72, 123, 46, 190, 238, 18, 216, 61, 102, 138, 236, 61, 224, 248, 193, 187, 109, 79, 49, 190, 224, 101, 116, 188, 198, 200, 158, 61, 219, 92, 115, 189, 156, 39, 64, 61, 24, 163, 237, 189, 60, 107, 109, 61, 244, 24, 65, 61, 180, 133, 28, 61, 222, 55, 119, 189, 8, 0, 126, 61, 96, 91, 99, 61, 8, 229, 83, 189, 154, 75, 188, 189, 62, 181, 116, 189, 10, 235, 219, 61, 254, 236, 236, 61, 52, 154, 64, 61, 55, 226, 35, 190, 25, 131, 28, 62, 13, 137, 14, 190, 126, 0, 171, 189, 130, 123, 133, 189, 80, 49, 149, 189, 184, 120, 60, 61, 208, 87, 240, 189, 0, 112, 105, 57, 128, 161, 245, 186, 229, 224, 174, 189, 60, 198, 49, 61, 83, 232, 7, 62, 64, 226, 31, 59, 215, 108, 34, 190, 120, 59, 39, 61, 48, 41, 91, 188, 160, 164, 179, 60, 0, 15, 52, 58, 204, 230, 182, 189, 215, 92, 9, 62, 32, 102, 8, 61, 39, 122, 49, 190, 252, 176, 51, 190, 4, 32, 169, 189, 228, 180, 27, 190, 218, 92, 17, 190, 152, 133, 128, 188, 144, 133, 114, 60, 135, 83, 130, 189, 184, 35, 213, 60, 93, 155, 139, 189, 204, 101, 17, 61, 134, 80, 42, 190, 44, 122, 17, 189, 94, 225, 186, 61, 6, 218, 233, 61, 222, 126, 5, 190, 52, 125, 79, 189, 0, 54, 154, 58, 214, 22, 36, 190, 228, 75, 28, 190, 23, 144, 39, 62, 13, 92, 42, 62, 39, 191, 46, 190, 88, 229, 169, 60, 126, 63, 225, 61, 222, 187, 253, 61, 241, 69, 8, 190, 144, 5, 249, 188, 64, 187, 65, 188, 144, 129, 110, 189, 152, 144, 230, 60, 1, 47, 2, 190, 134, 77, 180, 61, 217, 66, 184, 189, 112, 193, 128, 60, 226, 251, 26, 190, 60, 74, 58, 61, 16, 58, 25, 60, 242, 128, 11, 190, 187, 220, 19, 62, 192, 148, 158, 59, 158, 105, 161, 189, 214, 83, 116, 189, 38, 200, 253, 61, 176, 213, 160, 60, 20, 150, 87, 61, 43, 80, 9, 190, 137, 74, 155, 189, 166, 245, 241, 61, 155, 116, 30, 190, 69, 20, 24, 62, 210, 138, 159, 189, 130, 229, 222, 61, 50, 68, 134, 189, 206, 162, 161, 189, 246, 213, 231, 61, 141, 77, 208, 189, 28, 61, 94, 61, 196, 213, 37, 61, 12, 146, 60, 61, 42, 115, 204, 61, 136, 152, 143, 60, 31, 193, 29, 190, 119, 74, 35, 62, 146, 209, 240, 61, 4, 241, 235, 189, 207, 38, 230, 189, 160, 237, 97, 60, 216, 250, 92, 61, 110, 62, 12, 190, 146, 235, 4, 190, 226, 214, 209, 61, 55, 251, 1, 62, 12, 13, 114, 189, 196, 23, 42, 61, 224, 100, 238, 60, 214, 145, 105, 189, 45, 247, 36, 62, 191, 25, 50, 190, 162, 117, 89, 189, 192, 93, 160, 188, 36, 155, 5, 190, 212, 39, 43, 190, 215, 144, 16, 62, 232, 218, 240, 60, 236, 226, 23, 189, 154, 95, 170, 61, 102, 233, 158, 61, 206, 189, 211, 61, 32, 144, 157, 60, 78, 144, 101, 189, 142, 101, 172, 61, 69, 71, 28, 62, 232, 48, 188, 189, 17, 35, 232, 189, 139, 224, 32, 62, 139, 23, 146, 189, 64, 174, 42, 189, 194, 146, 251, 189, 108, 209, 18, 190, 152, 72, 70, 189, 160, 140, 122, 60, 34, 98, 134, 61, 25, 116, 4, 190, 182, 87, 251, 189, 156, 34, 207, 61, 223, 211, 14, 62, 209, 94, 177, 61, 105, 30, 12, 188, 185, 152, 113, 189, 10, 5, 105, 61, 130, 94, 176, 61, 161, 47, 128, 189, 47, 164, 99, 61, 145, 124, 231, 61, 146, 93, 50, 62, 228, 153, 30, 189, 221, 183, 124, 61, 69, 196, 198, 60, 104, 168, 102, 189, 12, 195, 20, 189, 40, 200, 236, 61, 44, 76, 34, 189, 223, 97, 40, 62, 214, 78, 186, 60, 94, 7, 3, 190, 247, 6, 197, 189, 177, 170, 65, 62, 110, 45, 194, 187, 69, 19, 17, 62, 143, 230, 64, 61, 150, 151, 45, 189, 65, 169, 65, 189, 172, 69, 97, 61, 97, 239, 60, 189, 98, 171, 156, 61, 211, 104, 1, 189, 160, 130, 133, 189, 188, 7, 72, 61, 160, 201, 63, 60, 29, 63, 12, 62, 96, 91, 49, 189, 112, 205, 213, 60, 229, 119, 207, 189, 22, 200, 98, 62, 90, 211, 207, 61, 40, 217, 49, 190, 127, 225, 32, 62, 36, 33, 24, 190, 86, 9, 5, 61, 98, 15, 168, 189, 162, 245, 175, 61, 210, 226, 199, 189, 239, 123, 27, 62, 185, 78, 195, 189, 208, 73, 141, 61, 234, 116, 161, 61, 69, 199, 35, 189, 117, 17, 218, 189, 24, 130, 110, 189, 123, 157, 174, 61, 64, 72, 3, 61, 2, 167, 163, 189, 148, 18, 122, 61, 14, 245, 181, 61, 18, 19, 91, 189, 120, 184, 209, 61, 30, 212, 129, 189, 4, 31, 55, 190, 84, 144, 154, 189, 133, 67, 232, 189, 72, 154, 100, 61, 207, 63, 157, 189, 94, 59, 162, 61, 28, 33, 112, 189, 250, 196, 240, 61, 169, 110, 14, 60, 50, 246, 170, 189, 196, 44, 37, 189, 198, 122, 41, 190, 107, 254, 132, 189, 215, 19, 190, 189, 10, 102, 160, 61, 32, 254, 236, 60, 98, 240, 155, 61, 64, 127, 218, 60, 169, 88, 68, 62, 160, 47, 136, 60, 203, 38, 145, 189, 160, 148, 219, 61, 174, 151, 30, 62, 51, 178, 36, 61, 246, 237, 203, 189, 28, 119, 226, 188, 247, 36, 1, 190, 152, 115, 14, 190, 43, 146, 136, 61, 53, 37, 24, 190, 92, 254, 20, 61, 143, 121, 14, 62, 229, 13, 33, 62, 212, 18, 40, 190, 214, 252, 143, 189, 4, 61, 237, 188, 14, 158, 121, 61, 102, 62, 56, 190, 80, 32, 24, 190, 160, 232, 44, 61, 202, 227, 50, 61, 202, 18, 174, 61, 32, 199, 178, 188, 87, 249, 186, 189, 116, 101, 86, 189, 223, 17, 178, 189, 160, 220, 221, 187, 27, 142, 11, 62, 132, 202, 252, 61, 76, 147, 74, 62, 9, 12, 99, 62, 180, 205, 97, 189, 0, 222, 227, 60, 40, 8, 241, 188, 106, 90, 10, 190, 21, 234, 164, 61, 241, 185, 36, 62, 30, 174, 211, 61, 231, 133, 222, 189, 64, 46, 13, 190, 128, 164, 177, 188, 152, 130, 58, 61, 238, 55, 147, 61, 211, 163, 176, 188, 225, 53, 192, 189, 150, 87, 26, 62, 134, 14, 148, 188, 32, 210, 42, 189, 17, 72, 186, 61, 142, 59, 226, 61, 212, 75, 174, 189, 136, 109, 33, 190, 249, 196, 167, 189, 206, 155, 246, 189, 217, 103, 12, 61, 246, 220, 232, 61, 56, 59, 187, 188, 142, 86, 34, 61, 177, 247, 36, 62, 160, 242, 216, 59, 229, 191, 48, 62, 196, 147, 169, 189, 52, 172, 143, 61, 210, 135, 30, 190, 182, 89, 125, 189, 30, 205, 221, 189, 200, 216, 1, 189, 69, 248, 45, 188, 14, 8, 180, 189, 143, 208, 242, 61, 227, 89, 20, 62, 189, 248, 128, 61, 15, 10, 180, 188, 35, 63, 71, 62, 216, 46, 82, 189, 195, 163, 47, 62, 236, 1, 173, 61, 187, 107, 214, 61, 100, 13, 13, 190, 46, 65, 242, 61, 198, 220, 186, 61, 96, 50, 210, 60, 214, 142, 150, 61, 70, 146, 233, 61, 132, 189, 186, 60, 89, 189, 19, 62, 215, 196, 37, 62, 90, 94, 200, 188, 173, 79, 16, 190, 209, 199, 167, 59, 43, 185, 151, 61, 169, 10, 3, 190, 10, 168, 139, 61, 180, 196, 0, 61, 49, 223, 42, 62, 27, 94, 207, 189, 168, 244, 252, 188, 61, 81, 42, 62, 235, 6, 141, 61, 95, 113, 171, 60, 180, 161, 53, 60, 81, 103, 4, 62, 189, 168, 244, 61, 28, 255, 47, 190, 231, 80, 50, 62, 254, 13, 255, 61, 208, 103, 43, 61, 198, 122, 47, 62, 225, 232, 11, 62, 226, 79, 253, 61, 0, 69, 197, 188, 114, 156, 189, 61, 191, 153, 229, 189, 137, 190, 6, 62, 32, 8, 25, 62, 48, 162, 45, 61, 203, 7, 4, 61, 64, 99, 146, 187, 105, 213, 20, 62, 154, 124, 185, 61, 157, 190, 38, 62, 81, 255, 128, 61, 54, 225, 152, 189, 201, 130, 31, 62, 196, 186, 16, 61, 215, 37, 2, 62, 37, 48, 13, 62, 138, 78, 234, 189, 144, 209, 155, 188, 14, 78, 227, 189, 92, 136, 216, 189, 165, 4, 69, 59, 132, 187, 9, 190, 233, 239, 210, 61, 79, 125, 6, 62, 232, 29, 23, 189, 199, 27, 206, 187, 92, 75, 60, 62, 144, 189, 64, 60, 255, 30, 161, 189, 145, 121, 22, 190, 135, 72, 247, 188, 0, 171, 160, 187, 102, 203, 181, 61, 67, 149, 226, 61, 244, 124, 235, 188, 255, 13, 45, 190, 12, 186, 60, 189, 186, 250, 169, 60, 139, 198, 5, 190, 244, 33, 246, 189, 205, 135, 12, 62, 162, 16, 191, 61, 199, 30, 11, 62, 154, 199, 135, 61, 96, 79, 173, 187, 32, 89, 2, 190, 227, 1, 153, 61, 33, 108, 100, 61, 204, 69, 45, 62, 116, 104, 54, 189, 74, 6, 178, 61, 232, 124, 144, 61, 13, 171, 211, 61, 50, 187, 208, 60, 5, 46, 153, 189, 125, 27, 193, 59, 214, 168, 194, 61, 227, 240, 159, 189, 114, 172, 161, 61, 135, 151, 209, 61, 210, 223, 157, 189, 13, 200, 12, 62, 16, 223, 190, 60, 195, 112, 20, 190, 137, 7, 7, 60, 49, 170, 40, 62, 131, 223, 206, 189, 211, 154, 88, 61, 144, 20, 176, 60, 218, 34, 85, 61, 217, 243, 152, 61, 50, 198, 6, 189, 242, 245, 138, 61, 196, 127, 82, 61, 21, 124, 188, 61, 16, 153, 199, 61, 168, 62, 49, 59, 250, 52, 217, 189, 153, 23, 116, 189, 149, 185, 50, 62, 42, 156, 185, 61, 57, 76, 144, 189, 62, 1, 201, 61, 178, 59, 254, 189, 17, 223, 207, 58, 9, 77, 201, 189, 204, 44, 241, 189, 118, 145, 26, 62, 156, 80, 201, 189, 78, 26, 77, 62, 201, 136, 2, 61, 206, 234, 208, 61, 141, 193, 1, 190, 211, 79, 203, 61, 125, 52, 62, 189, 61, 215, 9, 190, 227, 146, 133, 189, 174, 57, 222, 59, 251, 233, 245, 186, 75, 86, 176, 189, 175, 117, 243, 60, 90, 3, 250, 61, 197, 59, 177, 189, 164, 196, 120, 61, 35, 254, 210, 61, 195, 32, 34, 62, 114, 79, 153, 61, 118, 5, 7, 62, 44, 143, 112, 61, 37, 131, 52, 62, 38, 120, 142, 61, 192, 158, 95, 187, 32, 179, 32, 188, 94, 192, 157, 61, 180, 113, 63, 189, 135, 46, 60, 61, 135, 188, 82, 61, 9, 61, 43, 189, 128, 132, 119, 61, 204, 122, 85, 188, 24, 21, 101, 189, 75, 26, 1, 62, 185, 90, 31, 190, 185, 239, 29, 190, 47, 32, 239, 189, 250, 244, 213, 189, 224, 167, 52, 61, 51, 225, 243, 61, 83, 186, 28, 62, 119, 51, 49, 62, 38, 207, 34, 190, 105, 106, 94, 189, 4, 10, 26, 189, 94, 232, 51, 62, 96, 65, 182, 59, 169, 133, 148, 189, 41, 47, 59, 60, 64, 175, 71, 60, 240, 186, 88, 189, 136, 5, 211, 189, 98, 216, 196, 61, 93, 234, 48, 62, 170, 66, 232, 61, 43, 154, 7, 190, 146, 195, 245, 61, 240, 124, 79, 61, 150, 221, 91, 61, 57, 244, 49, 62, 203, 163, 34, 190, 41, 43, 108, 61, 209, 217, 1, 62, 9, 192, 61, 62, 126, 18, 165, 61, 6, 161, 182, 189, 105, 99, 174, 188, 191, 68, 0, 190, 215, 185, 252, 61, 160, 108, 79, 61, 127, 222, 154, 189, 186, 198, 28, 190, 153, 21, 218, 60, 72, 59, 240, 57, 175, 176, 157, 61, 35, 218, 237, 189, 245, 27, 0, 62, 104, 108, 17, 62, 189, 98, 55, 189, 72, 18, 201, 60, 215, 136, 12, 62, 136, 240, 76, 189, 198, 44, 142, 61, 28, 53, 8, 61, 98, 150, 221, 189, 209, 45, 40, 190, 35, 9, 173, 61, 215, 178, 233, 61, 86, 49, 30, 62, 26, 131, 106, 61, 15, 160, 9, 190, 163, 25, 52, 190, 255, 196, 153, 57, 196, 142, 156, 189, 45, 219, 4, 62, 44, 235, 127, 61, 112, 207, 242, 60, 156, 127, 109, 61, 0, 31, 164, 186, 153, 15, 202, 60, 146, 141, 236, 189, 209, 72, 52, 190, 140, 120, 190, 189, 184, 225, 163, 61, 131, 10, 53, 189, 58, 51, 103, 61, 58, 238, 28, 190, 71, 182, 100, 189, 7, 35, 235, 189, 120, 117, 170, 61, 217, 129, 249, 61, 215, 99, 136, 189, 224, 142, 179, 60, 26, 219, 213, 189, 140, 97, 232, 187, 199, 39, 144, 60, 249, 243, 133, 61, 74, 178, 242, 61, 222, 207, 59, 62, 187, 102, 249, 189, 19, 216, 45, 62, 177, 40, 160, 189, 70, 92, 183, 61, 134, 68, 0, 190, 59, 33, 229, 189, 188, 193, 236, 61, 120, 2, 80, 61, 204, 3, 78, 62, 62, 39, 214, 189, 107, 213, 201, 189, 102, 180, 252, 189, 224, 70, 49, 62, 155, 199, 137, 61, 248, 197, 38, 62, 32, 227, 140, 60, 162, 133, 12, 189, 128, 242, 177, 186, 194, 190, 223, 61, 254, 67, 126, 61, 28, 47, 48, 189, 196, 27, 167, 189, 239, 80, 32, 60, 14, 186, 231, 61, 111, 194, 50, 62, 169, 11, 146, 189, 116, 237, 63, 189, 72, 104, 102, 189, 88, 4, 142, 189, 181, 120, 25, 62, 75, 209, 48, 62, 192, 109, 200, 59, 223, 75, 27, 62, 160, 218, 17, 188, 192, 102, 45, 189, 23, 73, 28, 62, 239, 196, 195, 61, 70, 84, 251, 60, 249, 7, 35, 189, 122, 42, 124, 189, 86, 190, 2, 62, 251, 55, 43, 190, 189, 73, 143, 189, 96, 236, 47, 189, 102, 132, 211, 61, 182, 62, 224, 61, 93, 20, 206, 61, 170, 67, 186, 61, 131, 237, 36, 62, 218, 180, 46, 62, 132, 186, 16, 190, 196, 29, 6, 190, 4, 112, 227, 61, 42, 91, 162, 61, 61, 61, 194, 189, 112, 123, 103, 60, 72, 165, 246, 60, 116, 161, 134, 189, 149, 221, 18, 62, 30, 37, 14, 62, 0, 23, 251, 61, 132, 189, 9, 189, 123, 237, 34, 62, 12, 202, 170, 189, 133, 73, 161, 189, 120, 186, 202, 188, 182, 145, 210, 61, 208, 236, 69, 61, 173, 152, 71, 62, 112, 56, 102, 60, 37, 12, 145, 189, 107, 109, 125, 61, 182, 176, 227, 189, 176, 124, 62, 189, 117, 69, 0, 61, 22, 17, 130, 189, 112, 106, 1, 60, 7, 34, 205, 189, 56, 71, 118, 189, 169, 112, 176, 60, 106, 213, 220, 61, 51, 0, 79, 61, 193, 151, 188, 61, 186, 14, 43, 62, 250, 206, 157, 61, 96, 103, 55, 188, 50, 94, 26, 62, 224, 144, 6, 60, 46, 88, 194, 61, 28, 200, 45, 190, 204, 197, 42, 61, 162, 31, 165, 61, 124, 20, 83, 189, 48, 114, 105, 189, 239, 241, 41, 190, 114, 67, 226, 189, 214, 125, 17, 62, 92, 14, 206, 61, 87, 57, 30, 190, 178, 157, 141, 61, 153, 167, 153, 189, 192, 143, 51, 190, 39, 107, 144, 189, 36, 106, 255, 189, 118, 26, 253, 61, 198, 131, 197, 61, 116, 173, 254, 189, 88, 143, 60, 61, 82, 227, 250, 189, 252, 166, 249, 189, 154, 95, 234, 61, 138, 52, 75, 61, 12, 77, 249, 189, 95, 182, 211, 60, 229, 197, 2, 62, 99, 85, 39, 62, 248, 37, 146, 61, 143, 208, 49, 62, 157, 38, 26, 190, 137, 68, 243, 61, 222, 109, 34, 62, 78, 64, 169, 61, 96, 22, 255, 60, 140, 164, 1, 189, 100, 120, 184, 189, 0, 60, 116, 188, 154, 191, 148, 189, 249, 74, 183, 189, 187, 105, 22, 62, 236, 253, 239, 189, 53, 175, 2, 62, 16, 14, 103, 61, 126, 18, 211, 61, 231, 249, 226, 189, 234, 147, 38, 190, 6, 228, 43, 187, 140, 193, 105, 188, 35, 7, 196, 189, 156, 119, 189, 187, 32, 251, 30, 60, 255, 18, 237, 189, 240, 9, 26, 60, 165, 105, 7, 62, 205, 72, 215, 60, 97, 141, 147, 189, 7, 32, 200, 189, 69, 64, 135, 188, 32, 77, 128, 59, 10, 18, 235, 61, 168, 70, 100, 61, 229, 199, 120, 189, 18, 139, 217, 61, 102, 148, 173, 60, 95, 41, 28, 62, 57, 173, 27, 62, 120, 210, 229, 188, 211, 189, 124, 61, 144, 164, 188, 60, 79, 42, 146, 189, 160, 44, 30, 190, 153, 74, 152, 189, 64, 170, 251, 59, 0, 42, 171, 59, 173, 46, 12, 62, 137, 238, 153, 61, 218, 126, 225, 189, 208, 113, 177, 189, 51, 2, 48, 62, 87, 101, 117, 189, 152, 52, 66, 61, 86, 71, 254, 61, 215, 117, 45, 190, 64, 47, 8, 187, 133, 36, 119, 189, 253, 246, 8, 62, 135, 80, 188, 189, 110, 104, 39, 62, 41, 217, 128, 189, 2, 138, 28, 189, 0, 190, 6, 187, 55, 255, 165, 189, 110, 99, 2, 190, 15, 194, 32, 62, 60, 11, 19, 61, 98, 231, 242, 61, 188, 186, 5, 189, 214, 164, 2, 190, 208, 212, 41, 189, 113, 55, 40, 190, 253, 148, 26, 190, 64, 11, 170, 60, 165, 129, 172, 189, 18, 102, 123, 189, 128, 154, 194, 187, 130, 158, 129, 61, 103, 138, 70, 61, 158, 236, 16, 190, 0, 62, 220, 57, 114, 104, 229, 61, 239, 223, 45, 60, 64, 181, 96, 188, 122, 47, 201, 61, 114, 126, 250, 189, 67, 99, 46, 190, 123, 13, 44, 190, 180, 213, 239, 189, 145, 80, 42, 62, 28, 10, 11, 190, 64, 89, 244, 189, 212, 92, 45, 190, 208, 38, 77, 189, 217, 39, 226, 189, 90, 222, 230, 61, 16, 199, 91, 188, 160, 34, 208, 189, 245, 34, 30, 190, 133, 34, 23, 62, 7, 107, 7, 62, 128, 193, 223, 186, 124, 181, 41, 189, 210, 230, 228, 189, 64, 111, 100, 187, 10, 53, 192, 61, 160, 241, 25, 189, 205, 171, 32, 62, 186, 114, 204, 188, 169, 49, 35, 62, 152, 101, 31, 190, 0, 10, 57, 186, 83, 74, 30, 62, 45, 232, 51, 61, 26, 227, 175, 61, 220, 159, 31, 62, 196, 147, 201, 189, 85, 88, 45, 62, 224, 39, 255, 188, 93, 179, 130, 61, 171, 8, 186, 61, 156, 141, 46, 61, 161, 18, 138, 61, 171, 246, 52, 61, 111, 221, 42, 62, 135, 44, 201, 61, 214, 86, 86, 189, 81, 123, 149, 60, 66, 22, 134, 61, 100, 22, 243, 189, 23, 138, 254, 189, 123, 187, 36, 190, 180, 182, 11, 189, 96, 28, 210, 189, 166, 26, 221, 189, 3, 57, 153, 189, 0, 43, 220, 61, 128, 178, 237, 60, 45, 195, 36, 189, 39, 115, 199, 61, 7, 59, 27, 62, 87, 8, 145, 61, 214, 131, 246, 61, 191, 66, 132, 189, 241, 78, 3, 190, 25, 108, 51, 61, 36, 90, 79, 189, 205, 240, 31, 61, 132, 9, 161, 189, 148, 87, 35, 62, 232, 19, 66, 189, 153, 52, 137, 188, 154, 221, 169, 61, 7, 47, 0, 189, 115, 20, 1, 190, 164, 4, 241, 61, 74, 79, 172, 61, 164, 36, 3, 190, 35, 176, 118, 61, 22, 44, 8, 190, 27, 0, 45, 62, 252, 216, 44, 189, 224, 77, 25, 190, 223, 115, 6, 189, 33, 120, 124, 61, 239, 187, 30, 190, 116, 164, 5, 190, 78, 95, 174, 61, 130, 57, 238, 61, 160, 218, 65, 62, 179, 167, 2, 62, 162, 14, 188, 61, 174, 169, 210, 61, 160, 19, 9, 189, 184, 170, 99, 62, 253, 3, 201, 189, 42, 64, 56, 62, 244, 72, 53, 61, 207, 52, 39, 62, 155, 88, 2, 60, 92, 216, 184, 189, 92, 249, 30, 189, 208, 52, 241, 60, 148, 190, 67, 61, 51, 178, 112, 61, 236, 245, 228, 61, 0, 26, 206, 188, 134, 25, 24, 62, 189, 226, 173, 59, 62, 14, 164, 189, 109, 124, 211, 189, 212, 138, 105, 188, 166, 14, 161, 61, 25, 82, 172, 60, 22, 202, 196, 61, 236, 182, 127, 61, 43, 74, 138, 189, 150, 93, 198, 61, 31, 150, 62, 189, 103, 120, 123, 61, 174, 79, 245, 189, 17, 15, 144, 189, 3, 237, 37, 62, 168, 191, 63, 62, 228, 102, 24, 190, 144, 13, 4, 60, 138, 23, 79, 62, 134, 192, 245, 189, 242, 59, 250, 61, 156, 64, 177, 61, 176, 101, 86, 62, 122, 183, 27, 189, 154, 88, 174, 189, 50, 23, 183, 188, 99, 42, 187, 61, 158, 11, 238, 61, 172, 23, 221, 188, 193, 151, 21, 190, 7, 229, 77, 62, 120, 240, 14, 189, 235, 242, 232, 61, 205, 50, 25, 62, 196, 159, 6, 62, 162, 89, 30, 62, 146, 6, 192, 189, 208, 234, 125, 60, 151, 76, 20, 190, 237, 43, 41, 62, 168, 249, 163, 188, 11, 243, 5, 62, 195, 84, 41, 62, 139, 105, 8, 62, 77, 192, 19, 62, 200, 48, 102, 60, 11, 91, 94, 61, 214, 223, 139, 189, 224, 79, 202, 189, 37, 227, 6, 189, 248, 149, 36, 61, 96, 57, 48, 189, 54, 201, 176, 189, 220, 13, 80, 189, 226, 63, 219, 61, 69, 11, 165, 61, 43, 219, 109, 60, 70, 134, 225, 189, 140, 201, 33, 61, 236, 117, 90, 62, 218, 244, 16, 190, 229, 122, 10, 62, 181, 254, 8, 190, 248, 28, 9, 188, 240, 106, 89, 190, 48, 114, 108, 190, 217, 142, 121, 188, 53, 148, 137, 189, 24, 101, 120, 189, 91, 250, 29, 62, 163, 41, 142, 61, 166, 110, 71, 62, 203, 212, 143, 188, 128, 159, 199, 188, 200, 193, 114, 61, 47, 162, 188, 61, 242, 40, 177, 189, 42, 115, 152, 61, 179, 236, 29, 189, 8, 162, 64, 189, 210, 239, 219, 61, 84, 46, 201, 188, 104, 7, 220, 60, 152, 210, 59, 61, 120, 73, 19, 62, 22, 59, 165, 61, 240, 121, 78, 61, 103, 185, 132, 189, 202, 178, 186, 61, 250, 246, 251, 189, 2, 198, 229, 61, 81, 42, 56, 62, 52, 209, 21, 61, 201, 147, 173, 189, 227, 21, 45, 62, 240, 42, 194, 189, 128, 50, 65, 61, 87, 92, 97, 189, 71, 217, 45, 190, 232, 42, 186, 60, 109, 187, 190, 189, 108, 219, 24, 62, 4, 46, 15, 190, 225, 244, 123, 61, 194, 253, 91, 62, 198, 23, 198, 189, 146, 27, 81, 188, 96, 137, 157, 188, 224, 48, 194, 188, 65, 193, 19, 190, 236, 76, 120, 189, 204, 181, 49, 61, 84, 152, 174, 189, 215, 3, 3, 62, 180, 158, 169, 188, 167, 36, 209, 61, 115, 171, 31, 190, 82, 217, 56, 62, 230, 201, 39, 190, 219, 65, 86, 190, 67, 88, 20, 62, 105, 71, 42, 190, 71, 93, 146, 189, 226, 67, 32, 62, 39, 178, 82, 62, 240, 132, 222, 61, 92, 217, 22, 190, 251, 205, 25, 190, 251, 227, 12, 62, 46, 61, 4, 62, 192, 156, 76, 61, 45, 19, 138, 61, 222, 226, 144, 61, 225, 71, 18, 62, 199, 192, 35, 62, 66, 67, 170, 61, 187, 4, 36, 190, 132, 240, 30, 189, 81, 90, 47, 62, 20, 119, 25, 61, 213, 122, 44, 62, 236, 79, 30, 190, 81, 237, 199, 189, 135, 230, 178, 189, 166, 146, 201, 61, 227, 92, 42, 62, 160, 47, 120, 189, 208, 60, 172, 189, 88, 94, 225, 189, 195, 148, 56, 61, 203, 35, 149, 60, 242, 36, 133, 61, 82, 180, 250, 61, 230, 10, 49, 62, 4, 253, 119, 61, 166, 207, 214, 189, 55, 81, 18, 62, 208, 35, 189, 189, 162, 145, 158, 61, 208, 132, 25, 189, 141, 105, 90, 62, 209, 108, 239, 189, 227, 40, 48, 190, 0, 194, 97, 61, 100, 149, 0, 190, 100, 63, 160, 61, 232, 107, 179, 189, 146, 63, 47, 190, 63, 14, 37, 190, 224, 169, 73, 60, 92, 219, 120, 61, 232, 161, 102, 61, 126, 94, 243, 61, 173, 205, 141, 61, 99, 122, 20, 62, 0, 59, 86, 62, 10, 22, 156, 61, 82, 101, 201, 61, 240, 130, 69, 60, 175, 178, 209, 189, 248, 209, 249, 61, 140, 154, 28, 190, 44, 95, 125, 189, 76, 4, 61, 190, 15, 236, 181, 60, 6, 115, 26, 190, 45, 77, 46, 190, 244, 73, 120, 61, 213, 13, 13, 62, 48, 65, 3, 61, 142, 160, 92, 189, 222, 135, 190, 61, 5, 111, 154, 188, 113, 121, 157, 189, 81, 152, 92, 61, 195, 214, 114, 61, 160, 242, 66, 189, 222, 48, 63, 190, 106, 117, 36, 62, 112, 77, 150, 189, 240, 184, 238, 189, 88, 220, 187, 189, 71, 104, 32, 62, 180, 219, 183, 60, 70, 230, 240, 61, 201, 134, 38, 62, 142, 171, 47, 189, 247, 70, 14, 62, 70, 253, 245, 61, 8, 20, 62, 190, 114, 198, 217, 61, 107, 215, 136, 189, 87, 208, 130, 61, 147, 184, 76, 60, 32, 50, 208, 59, 96, 159, 177, 61, 32, 93, 170, 61, 227, 88, 190, 189, 189, 80, 55, 190, 100, 119, 9, 190, 108, 79, 32, 62, 46, 28, 230, 189, 232, 95, 251, 189, 182, 214, 118, 189, 230, 50, 252, 61, 92, 61, 145, 189, 41, 189, 37, 189, 223, 143, 34, 62, 40, 76, 2, 62, 240, 148, 134, 189, 129, 49, 9, 62, 71, 95, 223, 60, 118, 106, 47, 190, 54, 14, 50, 190, 47, 135, 154, 188, 219, 193, 228, 61, 130, 37, 221, 189, 124, 29, 239, 189, 104, 112, 244, 189, 200, 67, 9, 190, 24, 203, 195, 60, 174, 224, 223, 61, 176, 233, 106, 188, 195, 243, 35, 62, 228, 172, 180, 189, 142, 141, 249, 61, 177, 99, 51, 62, 32, 35, 121, 189, 1, 182, 34, 190, 212, 245, 44, 61, 192, 98, 12, 59, 96, 84, 157, 188, 75, 17, 217, 61, 142, 22, 18, 190, 159, 60, 24, 190, 178, 18, 96, 189, 169, 86, 231, 189, 241, 67, 200, 188, 189, 168, 52, 62, 12, 209, 3, 62, 221, 246, 27, 62, 150, 10, 130, 189, 90, 224, 91, 189, 205, 153, 33, 190, 3, 179, 178, 189, 62, 37, 196, 61, 187, 0, 15, 190, 125, 120, 233, 61, 248, 167, 192, 189, 168, 126, 37, 61, 32, 168, 187, 188, 117, 112, 139, 189, 42, 19, 154, 61, 124, 78, 61, 61, 60, 189, 207, 188, 29, 142, 192, 189, 92, 131, 132, 61, 218, 228, 9, 61, 233, 227, 46, 190, 167, 37, 156, 61, 234, 28, 161, 61, 100, 133, 9, 189, 1, 133, 129, 61, 138, 114, 218, 61, 172, 196, 239, 61, 16, 195, 38, 60, 38, 232, 243, 61, 80, 229, 157, 188, 14, 18, 212, 188, 248, 139, 82, 61, 90, 18, 8, 61, 45, 219, 184, 189, 159, 140, 49, 62, 172, 167, 1, 62, 86, 135, 154, 61, 139, 87, 50, 62, 238, 193, 146, 189, 42, 226, 147, 61, 12, 242, 152, 189, 40, 88, 31, 189, 121, 12, 225, 189, 227, 40, 171, 189, 80, 170, 76, 60, 196, 183, 10, 187, 242, 42, 253, 59, 188, 254, 55, 189, 72, 155, 195, 60, 37, 198, 13, 190, 28, 124, 234, 189, 55, 74, 194, 189, 205, 163, 5, 62, 81, 144, 154, 61, 214, 80, 62, 61, 171, 246, 152, 189, 80, 153, 69, 189, 22, 95, 235, 60, 50, 144, 63, 62, 208, 211, 176, 188, 193, 240, 205, 61, 167, 39, 55, 188, 153, 119, 57, 62, 170, 248, 206, 61, 233, 239, 14, 61, 100, 136, 253, 61, 112, 16, 243, 60, 168, 174, 29, 62, 184, 129, 157, 189, 109, 107, 239, 61, 73, 255, 222, 189, 244, 131, 105, 189, 88, 184, 35, 190, 85, 211, 190, 189, 132, 240, 85, 61, 94, 72, 227, 61, 49, 97, 15, 62, 128, 163, 116, 189, 152, 158, 196, 188, 206, 207, 226, 61, 0, 108, 0, 190, 170, 117, 245, 61, 50, 48, 60, 188, 182, 191, 198, 61, 24, 43, 146, 61, 165, 108, 178, 189, 93, 48, 203, 61, 12, 3, 20, 190, 164, 101, 15, 188, 37, 33, 62, 62, 24, 19, 7, 190, 172, 249, 76, 190, 16, 90, 137, 189, 58, 207, 242, 189, 67, 146, 202, 189, 228, 72, 8, 62, 4, 106, 113, 189, 204, 134, 27, 61, 31, 73, 60, 61, 7, 60, 46, 189, 205, 64, 6, 62, 150, 186, 44, 60, 71, 74, 191, 61, 160, 46, 197, 59, 127, 253, 167, 59, 53, 199, 194, 189, 153, 9, 167, 189, 254, 224, 78, 62, 39, 227, 228, 189, 152, 94, 125, 61, 150, 111, 216, 61, 95, 30, 49, 62, 158, 218, 88, 189, 56, 175, 33, 189, 96, 0, 193, 61, 246, 143, 66, 190, 146, 145, 131, 61, 217, 2, 171, 61, 128, 153, 55, 59, 254, 7, 233, 189, 51, 131, 39, 62, 131, 158, 141, 61, 122, 127, 186, 61, 46, 107, 17, 62, 100, 250, 214, 187, 112, 191, 67, 62, 6, 95, 33, 190, 197, 49, 51, 62, 94, 255, 145, 61, 204, 27, 187, 61, 242, 77, 9, 190, 122, 53, 82, 189, 89, 220, 207, 189, 143, 169, 28, 190, 239, 202, 84, 62, 16, 97, 96, 61, 51, 180, 145, 189, 210, 124, 28, 61, 37, 62, 11, 62, 164, 133, 249, 189, 46, 24, 151, 61, 143, 45, 34, 62, 240, 140, 51, 189, 136, 153, 64, 189, 239, 44, 232, 60, 66, 209, 172, 189, 212, 64, 232, 61, 56, 27, 78, 60, 174, 219, 6, 190, 133, 156, 64, 187, 112, 136, 106, 189, 145, 150, 204, 189, 214, 161, 8, 62, 253, 189, 181, 189, 142, 239, 217, 61, 5, 164, 50, 61, 29, 153, 242, 61, 74, 52, 205, 189, 182, 77, 108, 60, 29, 179, 1, 61, 56, 192, 130, 189, 236, 30, 214, 60, 253, 220, 169, 189, 151, 15, 236, 189, 118, 169, 66, 189, 4, 56, 46, 189, 181, 225, 14, 62, 77, 217, 51, 62, 1, 209, 32, 62, 72, 204, 54, 61, 250, 101, 148, 61, 59, 1, 206, 61, 212, 169, 105, 189, 240, 85, 85, 188, 7, 170, 44, 61, 68, 36, 248, 189, 13, 122, 196, 189, 244, 111, 14, 189, 237, 31, 178, 189, 120, 158, 113, 61, 52, 47, 32, 189, 10, 224, 31, 62, 45, 223, 243, 61, 46, 229, 187, 189, 67, 199, 10, 62, 199, 68, 13, 190, 91, 62, 149, 61, 80, 77, 50, 188, 64, 188, 142, 61, 83, 187, 45, 190, 19, 42, 51, 190, 89, 152, 13, 62, 113, 22, 48, 190, 214, 128, 77, 61, 86, 121, 241, 61, 245, 172, 149, 61, 138, 235, 95, 189, 200, 195, 45, 189, 21, 200, 153, 189, 178, 75, 150, 61, 228, 250, 40, 61, 209, 148, 13, 62, 14, 142, 29, 189, 54, 176, 187, 61, 201, 165, 128, 61, 10, 37, 103, 61, 254, 6, 47, 190, 185, 161, 51, 190, 240, 200, 212, 188, 0, 200, 189, 184, 44, 191, 92, 189, 14, 175, 143, 189, 224, 239, 228, 187, 206, 75, 41, 190, 60, 39, 237, 189, 175, 99, 34, 190, 23, 204, 30, 61, 108, 252, 243, 188, 212, 219, 14, 61, 68, 245, 137, 61, 230, 49, 222, 61, 10, 73, 9, 190, 34, 140, 25, 190, 135, 32, 16, 190, 30, 79, 53, 186, 253, 21, 28, 62, 214, 183, 22, 188, 248, 153, 217, 60, 128, 156, 100, 59, 105, 7, 166, 189, 181, 202, 38, 190, 104, 200, 254, 188, 37, 22, 22, 62, 37, 220, 6, 60, 38, 41, 201, 189, 64, 124, 239, 189, 80, 158, 5, 190, 245, 16, 129, 189, 138, 142, 13, 190, 189, 36, 208, 189, 9, 111, 156, 189, 74, 164, 253, 189, 158, 85, 134, 61, 31, 166, 52, 62, 140, 27, 122, 189, 122, 202, 39, 62, 208, 59, 125, 61, 172, 145, 69, 189, 26, 37, 235, 61, 203, 188, 12, 62, 178, 139, 195, 61, 88, 153, 210, 189, 4, 251, 121, 61, 70, 85, 219, 61, 91, 187, 194, 61, 172, 222, 251, 189, 50, 235, 191, 61, 0, 174, 15, 60, 110, 137, 220, 61, 222, 76, 33, 190, 226, 85, 198, 61, 10, 200, 135, 61, 130, 169, 218, 60, 114, 131, 183, 189, 236, 22, 72, 60, 148, 145, 147, 60, 2, 92, 229, 61, 65, 68, 43, 62, 19, 8, 32, 62, 199, 209, 185, 189, 25, 67, 15, 190, 121, 160, 134, 189, 119, 12, 216, 186, 67, 212, 25, 190, 131, 227, 11, 190, 169, 202, 51, 61, 99, 105, 232, 189, 222, 55, 18, 190, 112, 180, 106, 60, 60, 140, 72, 61, 110, 52, 211, 61, 44, 11, 137, 61, 3, 11, 16, 190, 13, 107, 209, 61, 193, 61, 2, 189, 1, 55, 10, 190, 39, 143, 229, 59, 152, 56, 19, 190, 232, 165, 27, 190, 59, 134, 17, 61, 209, 237, 39, 62, 0, 168, 40, 190, 152, 169, 46, 61, 153, 81, 19, 62, 110, 200, 41, 190, 226, 162, 193, 61, 236, 104, 20, 190, 208, 23, 39, 189, 78, 117, 10, 190, 42, 65, 17, 190, 192, 123, 171, 60, 22, 86, 125, 61, 187, 45, 18, 62, 208, 253, 7, 190, 219, 129, 2, 190, 0, 81, 122, 58, 38, 110, 199, 61, 254, 167, 204, 189, 68, 242, 145, 61, 224, 179, 68, 188, 232, 119, 188, 189, 96, 39, 251, 188, 48, 131, 216, 188, 230, 78, 186, 61, 160, 197, 178, 60, 227, 169, 6, 190, 24, 149, 240, 60, 12, 201, 133, 61, 203, 87, 168, 189, 234, 224, 36, 190, 155, 112, 32, 190, 30, 75, 230, 61, 20, 35, 52, 189, 28, 84, 35, 189, 28, 179, 39, 189, 195, 247, 40, 62, 118, 193, 240, 189, 186, 140, 222, 61, 160, 223, 194, 60, 30, 244, 228, 61, 2, 191, 11, 190, 55, 221, 164, 189, 74, 58, 169, 61, 237, 190, 39, 62, 128, 166, 167, 186, 72, 106, 105, 61, 208, 22, 40, 189, 190, 164, 118, 189, 24, 182, 136, 61, 201, 8, 0, 62, 248, 238, 192, 60, 77, 220, 50, 62, 64, 245, 45, 60, 148, 243, 34, 190, 193, 134, 201, 189, 168, 47, 145, 188, 54, 36, 18, 190, 136, 69, 240, 188, 225, 136, 26, 190, 160, 108, 10, 188, 157, 16, 47, 190, 86, 114, 197, 61, 229, 147, 1, 62, 144, 170, 9, 189, 206, 199, 168, 189, 129, 212, 144, 189, 84, 213, 134, 189, 88, 133, 69, 61, 3, 35, 7, 62, 201, 20, 40, 190, 90, 74, 190, 189, 179, 55, 254, 189, 85, 117, 144, 189, 40, 58, 48, 61, 193, 156, 38, 62, 181, 22, 46, 190, 188, 31, 25, 190, 35, 100, 132, 189, 132, 216, 6, 61, 128, 87, 213, 186, 156, 103, 203, 189, 224, 5, 208, 188, 96, 112, 248, 187, 251, 203, 32, 62, 108, 59, 49, 61, 42, 80, 241, 189, 70, 5, 23, 190, 68, 234, 68, 189, 112, 251, 117, 189, 47, 65, 26, 190, 86, 173, 111, 189, 143, 57, 41, 190, 225, 65, 41, 62, 53, 14, 135, 189, 174, 107, 139, 189, 188, 13, 126, 189, 242, 179, 142, 61, 200, 147, 207, 188, 166, 27, 123, 189, 184, 82, 175, 60, 224, 33, 100, 60, 184, 46, 209, 189, 240, 156, 186, 188, 164, 55, 95, 61, 190, 94, 192, 61, 168, 0, 231, 188, 98, 74, 21, 190, 252, 63, 105, 189, 208, 247, 75, 189, 192, 82, 158, 188, 2, 18, 236, 189, 51, 246, 144, 189, 172, 48, 33, 190, 26, 197, 108, 189, 45, 10, 149, 189, 148, 177, 48, 61, 56, 129, 21, 189, 236, 115, 240, 189, 91, 122, 222, 189, 120, 141, 140, 60, 140, 92, 197, 189, 90, 161, 49, 190, 220, 107, 107, 189, 181, 160, 37, 62, 232, 191, 104, 189, 193, 101, 12, 62, 32, 19, 178, 187, 246, 135, 203, 61, 104, 215, 14, 190, 208, 143, 181, 188, 118, 220, 15, 190, 184, 235, 211, 188, 11, 46, 44, 62, 8, 154, 64, 189, 192, 30, 34, 190, 96, 214, 128, 60, 128, 31, 52, 61, 88, 189, 228, 189, 177, 10, 30, 62, 49, 10, 163, 189, 38, 58, 234, 61, 64, 114, 179, 187, 30, 0, 142, 61, 74, 118, 214, 61, 47, 119, 13, 62, 252, 78, 195, 188, 254, 202, 171, 189, 119, 49, 80, 60, 204, 140, 188, 189, 145, 135, 244, 189, 240, 7, 226, 189, 59, 10, 53, 62, 205, 40, 59, 61, 216, 122, 220, 188, 88, 238, 16, 61, 56, 19, 140, 61, 4, 143, 55, 189, 239, 199, 251, 189, 234, 213, 158, 61, 60, 45, 21, 190, 128, 135, 86, 187, 220, 219, 166, 189, 154, 18, 137, 59, 244, 161, 191, 189, 78, 77, 179, 61, 196, 89, 53, 61, 178, 130, 131, 61, 32, 78, 71, 189, 29, 174, 136, 61, 7, 78, 31, 62, 58, 115, 30, 190, 28, 4, 85, 61, 72, 75, 38, 189, 9, 147, 28, 190, 55, 192, 254, 189, 137, 22, 47, 190, 235, 86, 66, 190, 6, 151, 178, 60, 127, 33, 45, 62, 194, 136, 202, 61, 237, 233, 33, 190, 40, 167, 133, 61, 126, 219, 32, 189, 224, 64, 109, 60, 176, 229, 156, 60, 59, 89, 190, 188, 186, 122, 8, 62, 111, 232, 60, 59, 240, 147, 2, 61, 114, 156, 179, 60, 54, 26, 138, 189, 40, 40, 97, 61, 99, 206, 190, 188, 66, 99, 14, 190, 0, 225, 15, 188, 34, 113, 233, 61, 115, 0, 246, 189, 154, 120, 156, 61, 46, 225, 20, 190, 151, 115, 245, 189, 138, 65, 49, 190, 137, 118, 21, 62, 14, 58, 150, 61, 144, 86, 54, 188, 16, 217, 227, 189, 88, 118, 27, 190, 222, 143, 203, 188, 133, 10, 0, 190, 11, 131, 12, 62, 15, 193, 40, 189, 93, 38, 19, 190, 239, 2, 29, 62, 97, 130, 8, 62, 28, 1, 14, 190, 40, 222, 189, 188, 120, 206, 175, 188, 225, 221, 208, 61, 7, 136, 141, 188, 208, 252, 67, 189, 9, 15, 171, 61, 129, 230, 24, 190, 163, 175, 19, 62, 152, 137, 140, 61, 106, 137, 137, 61, 64, 90, 190, 188, 83, 191, 4, 190, 69, 47, 17, 62, 18, 127, 128, 189, 108, 78, 193, 189, 12, 56, 1, 61, 107, 208, 144, 188, 112, 151, 52, 61, 6, 182, 205, 61, 22, 156, 152, 61, 24, 176, 112, 61, 190, 249, 167, 189, 64, 150, 73, 60, 109, 114, 45, 190, 67, 219, 81, 188, 112, 169, 140, 189, 176, 107, 9, 62, 67, 86, 35, 62, 193, 8, 221, 188, 77, 74, 21, 190, 72, 85, 45, 190, 16, 69, 19, 62, 6, 215, 36, 190, 4, 136, 242, 189, 220, 193, 185, 189, 31, 31, 1, 190, 105, 97, 77, 61, 67, 202, 184, 189, 129, 192, 165, 61, 74, 96, 115, 189, 160, 93, 239, 61, 46, 85, 37, 189, 0, 207, 254, 59, 52, 249, 93, 61, 225, 244, 18, 62, 32, 255, 26, 61, 44, 150, 16, 61, 44, 150, 185, 189, 201, 8, 153, 189, 123, 167, 50, 62, 104, 132, 216, 188, 148, 90, 240, 189, 211, 54, 210, 61, 96, 90, 76, 61, 152, 191, 8, 190, 39, 150, 246, 189, 1, 186, 149, 189, 168, 177, 19, 189, 0, 192, 187, 184, 242, 66, 217, 61, 186, 156, 225, 61, 104, 46, 14, 61, 12, 219, 47, 190, 28, 178, 56, 61, 79, 47, 44, 62, 28, 78, 18, 190, 16, 5, 91, 61, 95, 231, 136, 189, 171, 135, 254, 189, 147, 16, 19, 190, 17, 47, 49, 62, 166, 216, 231, 61, 60, 225, 62, 189, 124, 230, 137, 61, 112, 157, 42, 60, 111, 26, 146, 189, 148, 146, 133, 189, 230, 20, 220, 189, 124, 56, 111, 61, 225, 138, 152, 189, 32, 250, 249, 60, 64, 253, 161, 60, 72, 48, 238, 60, 32, 199, 17, 188, 214, 24, 160, 61, 104, 117, 81, 61, 235, 248, 29, 190, 106, 208, 8, 190, 233, 22, 14, 190, 128, 202, 205, 186, 50, 10, 175, 61, 220, 233, 37, 190, 26, 16, 251, 61, 65, 160, 12, 190, 243, 86, 47, 62, 238, 17, 3, 190, 72, 85, 39, 189, 26, 247, 161, 61, 152, 193, 34, 190, 102, 78, 244, 61, 192, 57, 8, 187, 156, 197, 104, 61, 223, 41, 37, 62, 34, 36, 172, 189, 119, 152, 20, 62, 252, 42, 226, 189, 131, 86, 210, 189, 17, 16, 147, 189, 192, 91, 34, 60, 72, 51, 109, 189, 70, 110, 154, 189, 132, 73, 120, 61, 246, 52, 181, 61, 162, 95, 183, 61, 26, 1, 168, 61, 204, 254, 51, 189, 40, 199, 117, 61, 213, 125, 246, 189, 145, 129, 24, 62, 72, 147, 112, 61, 66, 206, 156, 61, 132, 156, 65, 61, 152, 204, 175, 188, 68, 130, 34, 61, 209, 33, 39, 62, 10, 87, 34, 190, 41, 205, 23, 62, 38, 81, 158, 189, 120, 193, 214, 188, 32, 73, 184, 187, 204, 140, 100, 189, 64, 164, 186, 60, 193, 89, 52, 190, 208, 16, 99, 61, 120, 142, 181, 188, 117, 184, 30, 62, 22, 188, 131, 189, 160, 67, 151, 59, 97, 229, 179, 189, 16, 95, 234, 60, 49, 158, 28, 62, 239, 255, 33, 62, 235, 88, 240, 189, 151, 65, 201, 189, 123, 169, 211, 189, 88, 133, 48, 61, 40, 162, 198, 188, 81, 76, 144, 189, 4, 9, 98, 61, 92, 0, 116, 61, 98, 15, 177, 61, 139, 53, 42, 62, 190, 43, 92, 189, 152, 186, 56, 61, 141, 93, 2, 190, 118, 163, 43, 190, 236, 251, 216, 189, 24, 173, 107, 61, 48, 26, 59, 60, 16, 87, 14, 61, 203, 101, 187, 189, 170, 59, 124, 189, 4, 48, 10, 61, 206, 77, 255, 61, 45, 175, 221, 189, 130, 217, 188, 61, 78, 1, 210, 61, 190, 10, 173, 61, 171, 134, 192, 189, 184, 32, 178, 189, 34, 174, 47, 190, 155, 145, 133, 189, 152, 118, 198, 60, 128, 33, 57, 188, 160, 55, 248, 188, 75, 178, 157, 189, 164, 236, 15, 189, 144, 119, 24, 60, 136, 156, 116, 61, 207, 44, 50, 62, 22, 228, 188, 61, 162, 212, 250, 189, 16, 24, 173, 189, 116, 113, 6, 189, 169, 183, 42, 62, 97, 149, 176, 189, 107, 50, 236, 60, 153, 47, 144, 189, 192, 185, 21, 190, 50, 212, 235, 61, 178, 107, 32, 59, 64, 181, 124, 61, 63, 162, 192, 189, 198, 140, 39, 189, 123, 61, 58, 61, 119, 166, 22, 62, 231, 67, 156, 61, 126, 225, 23, 62, 41, 139, 23, 190, 222, 163, 5, 190, 123, 218, 176, 61, 61, 93, 145, 189, 168, 109, 119, 61, 73, 188, 174, 189, 251, 45, 30, 62, 51, 163, 235, 189, 23, 254, 166, 61, 128, 187, 229, 186, 91, 161, 198, 61, 2, 172, 6, 190, 24, 60, 3, 189, 160, 237, 157, 60, 48, 26, 71, 60, 50, 232, 193, 61, 36, 91, 51, 189, 163, 57, 182, 189, 128, 206, 110, 61, 152, 16, 233, 60, 193, 169, 237, 61, 80, 0, 35, 62, 86, 224, 175, 188, 80, 12, 228, 60, 1, 215, 23, 190, 45, 26, 16, 61, 171, 114, 45, 190, 75, 53, 171, 61, 134, 109, 141, 189, 197, 243, 46, 190, 124, 76, 47, 189, 117, 99, 239, 189, 237, 216, 240, 189, 155, 77, 251, 61, 134, 88, 205, 61, 243, 20, 19, 190, 2, 71, 28, 190, 125, 66, 139, 61, 236, 90, 9, 189, 182, 204, 239, 61, 205, 63, 130, 189, 12, 216, 125, 61, 124, 145, 173, 189, 230, 27, 226, 61, 231, 242, 183, 189, 43, 42, 16, 190, 112, 237, 26, 188, 128, 210, 95, 189, 224, 99, 3, 61, 0, 158, 176, 188, 249, 5, 214, 187, 30, 13, 44, 61, 21, 122, 194, 189, 134, 90, 140, 59, 68, 66, 37, 190, 155, 147, 173, 189, 54, 98, 149, 61, 226, 86, 3, 190, 16, 229, 237, 60, 67, 40, 186, 61, 245, 209, 7, 190, 167, 210, 160, 189, 10, 61, 34, 61, 38, 68, 145, 61, 129, 62, 44, 62, 78, 255, 8, 190, 84, 125, 76, 189, 185, 194, 177, 61, 45, 173, 193, 189, 218, 181, 36, 62, 8, 209, 132, 189, 62, 166, 29, 190, 26, 225, 202, 61, 64, 194, 120, 61, 36, 176, 16, 190, 192, 184, 226, 188, 208, 237, 235, 189, 71, 149, 34, 190, 104, 34, 36, 61, 116, 83, 5, 190, 126, 145, 255, 61, 169, 27, 169, 189, 76, 200, 209, 189, 118, 0, 240, 189, 226, 49, 145, 61, 149, 228, 234, 188, 64, 169, 171, 189, 160, 247, 224, 188, 20, 91, 203, 189, 124, 159, 155, 189, 166, 127, 249, 189, 30, 172, 172, 61, 68, 196, 121, 189, 168, 154, 217, 188, 50, 4, 220, 61, 216, 16, 156, 60, 248, 99, 229, 61, 230, 127, 139, 189, 13, 59, 25, 61, 246, 34, 151, 61, 24, 24, 129, 189, 231, 192, 165, 189, 80, 110, 240, 60, 85, 9, 163, 189, 96, 5, 204, 187, 114, 116, 244, 61, 2, 200, 171, 189, 99, 129, 39, 62, 224, 13, 145, 188, 189, 240, 179, 187, 244, 203, 226, 189, 18, 27, 183, 188, 241, 31, 34, 190, 218, 187, 243, 189, 104, 102, 18, 190, 104, 108, 208, 60, 79, 90, 33, 62, 216, 5, 20, 189, 69, 89, 30, 190, 89, 36, 49, 62, 251, 141, 224, 61, 193, 87, 6, 62, 156, 49, 117, 61, 183, 35, 117, 188, 69, 15, 145, 187, 192, 82, 21, 188, 129, 24, 57, 190, 58, 246, 40, 189, 118, 0, 254, 61, 34, 135, 107, 188, 0, 234, 223, 59, 71, 103, 19, 190, 79, 104, 20, 62, 93, 220, 20, 190, 60, 1, 12, 61, 69, 188, 12, 62, 124, 113, 16, 190, 128, 154, 104, 60, 56, 93, 6, 189, 194, 67, 218, 61, 66, 6, 168, 61, 56, 117, 219, 60, 250, 222, 18, 62, 64, 235, 23, 190, 224, 47, 151, 187, 189, 50, 59, 189, 16, 23, 114, 188, 191, 37, 37, 62, 203, 14, 4, 62, 113, 43, 20, 189, 36, 53, 249, 189, 113, 59, 243, 189, 44, 49, 178, 189, 248, 178, 192, 61, 203, 9, 16, 62, 5, 85, 9, 62, 8, 223, 78, 61, 92, 122, 17, 190, 73, 211, 247, 61, 2, 201, 230, 189, 80, 8, 236, 188, 182, 23, 64, 62, 119, 235, 223, 189, 79, 117, 43, 190, 214, 6, 61, 62, 247, 89, 141, 189, 66, 43, 203, 61, 65, 100, 42, 62, 144, 206, 4, 62, 34, 202, 183, 189, 33, 31, 177, 188, 153, 137, 99, 60, 250, 34, 170, 61, 33, 148, 167, 188, 245, 81, 30, 62, 250, 71, 163, 61, 128, 90, 26, 61, 148, 212, 27, 189, 243, 245, 43, 190, 21, 131, 246, 60, 129, 145, 173, 189, 120, 64, 35, 190, 34, 171, 229, 61, 156, 90, 127, 189, 186, 135, 185, 61, 161, 230, 8, 62, 210, 64, 159, 61, 50, 135, 230, 189, 38, 202, 60, 62, 81, 214, 71, 62, 176, 145, 239, 189, 88, 193, 3, 190, 42, 16, 5, 188, 59, 197, 239, 61, 0, 180, 165, 59, 45, 13, 9, 190, 90, 60, 238, 61, 225, 11, 236, 189, 118, 84, 3, 190, 210, 2, 38, 190, 202, 180, 179, 61, 248, 103, 200, 60, 154, 192, 29, 189, 102, 231, 156, 189, 223, 62, 155, 189, 240, 87, 69, 60, 122, 84, 185, 189, 112, 142, 160, 61, 250, 26, 148, 189, 28, 236, 21, 190, 140, 213, 255, 188, 118, 62, 83, 187, 182, 212, 156, 61, 246, 17, 156, 61, 30, 126, 0, 62, 122, 17, 106, 189, 43, 235, 204, 189, 28, 88, 112, 189, 249, 169, 85, 61, 144, 178, 1, 190, 144, 217, 113, 60, 173, 211, 14, 190, 54, 67, 151, 189, 213, 165, 12, 190, 9, 239, 179, 60, 41, 54, 50, 190, 232, 199, 77, 62, 218, 245, 155, 61, 27, 20, 7, 62, 52, 94, 248, 188, 48, 59, 80, 190, 102, 71, 177, 61, 192, 229, 234, 189, 68, 255, 13, 190, 224, 146, 53, 188, 214, 181, 159, 61, 216, 95, 196, 189, 120, 51, 86, 189, 183, 59, 40, 190, 70, 94, 119, 189, 154, 10, 130, 189, 115, 134, 131, 61, 232, 120, 220, 60, 123, 218, 226, 189, 101, 184, 9, 61, 30, 71, 87, 61, 111, 184, 17, 190, 137, 1, 109, 189, 80, 232, 228, 61, 184, 89, 165, 60, 101, 64, 16, 62, 32, 210, 150, 61, 209, 127, 245, 61, 204, 126, 1, 189, 105, 129, 188, 189, 227, 176, 169, 189, 121, 145, 94, 61, 224, 94, 219, 189, 27, 182, 48, 61, 252, 10, 34, 62, 138, 211, 201, 189, 248, 175, 151, 189, 98, 150, 3, 62, 163, 251, 5, 62, 206, 39, 61, 190, 224, 202, 189, 189, 182, 49, 43, 190, 206, 137, 233, 61, 68, 198, 24, 62, 97, 120, 10, 62, 109, 17, 28, 60, 48, 254, 139, 189, 158, 207, 33, 190, 222, 215, 36, 190, 54, 4, 183, 61, 232, 152, 140, 189, 209, 91, 185, 189, 56, 108, 31, 190, 156, 116, 109, 189, 83, 97, 150, 60, 119, 26, 187, 61, 28, 14, 86, 61, 198, 239, 143, 61, 19, 63, 144, 189, 227, 11, 140, 189, 179, 252, 189, 61, 127, 25, 159, 60, 97, 145, 171, 61, 224, 145, 78, 60, 251, 105, 219, 61, 164, 95, 4, 61, 228, 135, 29, 189, 84, 179, 32, 62, 12, 224, 219, 189, 82, 122, 255, 61, 121, 96, 13, 62, 219, 221, 40, 60, 12, 242, 211, 189, 138, 164, 178, 189, 234, 67, 0, 62, 140, 160, 55, 61, 226, 201, 224, 61, 115, 229, 41, 62, 147, 165, 38, 190, 75, 179, 7, 190, 167, 94, 137, 189, 76, 191, 22, 62, 235, 25, 22, 190, 10, 199, 1, 62, 14, 230, 234, 188, 44, 178, 60, 189, 211, 80, 44, 189, 22, 190, 191, 61, 215, 56, 150, 189, 108, 2, 5, 189, 173, 143, 24, 190, 172, 125, 42, 61, 13, 22, 163, 189, 242, 180, 49, 190, 90, 243, 105, 189, 227, 85, 213, 189, 255, 57, 138, 61, 154, 148, 236, 189, 132, 2, 167, 57, 99, 98, 24, 62, 217, 133, 152, 189, 138, 154, 128, 61, 74, 188, 218, 61, 33, 38, 62, 62, 156, 198, 17, 190, 254, 48, 197, 58, 197, 233, 216, 61, 2, 58, 239, 189, 120, 176, 254, 188, 26, 220, 27, 190, 63, 76, 204, 189, 160, 124, 149, 187, 48, 73, 40, 60, 15, 187, 59, 62, 118, 50, 8, 190, 21, 48, 254, 61, 12, 171, 14, 190, 204, 209, 156, 188, 72, 132, 138, 61, 110, 25, 109, 189, 32, 11, 196, 188, 75, 49, 46, 190, 104, 195, 224, 188, 252, 19, 5, 62, 1, 19, 108, 189, 242, 88, 54, 62, 220, 151, 93, 61, 155, 131, 179, 189, 31, 87, 214, 61, 162, 196, 200, 61, 238, 99, 148, 189, 112, 26, 129, 189, 31, 4, 118, 61, 169, 54, 202, 189, 206, 147, 24, 190, 223, 24, 2, 62, 195, 93, 8, 190, 64, 225, 61, 59, 76, 7, 40, 61, 86, 92, 167, 61, 245, 91, 248, 61, 137, 232, 1, 62, 195, 238, 135, 188, 53, 236, 236, 189, 159, 246, 223, 188, 160, 3, 178, 187, 86, 191, 241, 61, 90, 196, 253, 61, 158, 216, 253, 189, 48, 248, 172, 60, 214, 241, 156, 61, 224, 154, 33, 188, 18, 45, 221, 61, 56, 8, 188, 60, 80, 117, 33, 61, 144, 194, 216, 188, 220, 25, 235, 189, 240, 6, 12, 188, 216, 111, 34, 189, 230, 101, 153, 61, 96, 241, 88, 60, 124, 73, 9, 190, 20, 87, 153, 189, 50, 59, 11, 190, 251, 240, 27, 62, 0, 233, 141, 59, 206, 94, 187, 61, 242, 51, 135, 61, 48, 131, 200, 60, 184, 55, 10, 189, 160, 145, 184, 59, 136, 192, 184, 188, 32, 62, 223, 59, 0, 68, 166, 187, 253, 216, 245, 189, 188, 129, 115, 189, 55, 83, 207, 189, 113, 182, 18, 190, 117, 21, 21, 62, 128, 228, 182, 186, 168, 185, 144, 60, 221, 19, 135, 189, 186, 197, 124, 189, 44, 212, 169, 189, 96, 220, 87, 188, 72, 81, 22, 189, 138, 117, 29, 190, 114, 36, 196, 61, 128, 5, 25, 189, 216, 143, 208, 189, 42, 98, 154, 189, 64, 238, 30, 190, 164, 104, 26, 61, 48, 209, 195, 60, 138, 28, 152, 61, 200, 72, 254, 60, 52, 16, 107, 189, 176, 67, 253, 60, 129, 168, 42, 190, 80, 112, 8, 190, 218, 76, 190, 61, 135, 241, 14, 190, 13, 124, 253, 189, 176, 44, 22, 189, 67, 128, 5, 62, 200, 105, 36, 189, 212, 238, 210, 189, 52, 88, 76, 189, 208, 75, 112, 189, 137, 153, 10, 62, 144, 117, 27, 60, 221, 252, 213, 189, 114, 53, 10, 190, 64, 75, 183, 189, 181, 184, 38, 62, 230, 139, 210, 189, 54, 13, 153, 61, 2, 143, 140, 61, 30, 195, 236, 189, 158, 179, 247, 61, 220, 114, 69, 61, 187, 96, 212, 189, 190, 27, 159, 61, 83, 26, 14, 62, 238, 240, 215, 61, 160, 99, 254, 189, 99, 171, 223, 189, 136, 38, 61, 61, 33, 104, 20, 62, 172, 187, 244, 189, 96, 6, 239, 60, 152, 93, 89, 189, 133, 199, 43, 62, 10, 3, 207, 61, 202, 36, 24, 190, 238, 132, 203, 189, 113, 80, 39, 190, 219, 181, 1, 190, 188, 204, 81, 189, 128, 252, 62, 189, 166, 25, 182, 189, 43, 163, 6, 62, 132, 208, 6, 189, 42, 243, 193, 61, 174, 79, 169, 61, 128, 207, 66, 187, 200, 41, 134, 188, 48, 74, 89, 189, 207, 227, 183, 189, 99, 197, 6, 190, 46, 91, 129, 189, 180, 53, 22, 61, 241, 79, 10, 190, 71, 167, 214, 189, 27, 177, 49, 190, 76, 203, 9, 189, 166, 60, 187, 61, 111, 72, 4, 62, 130, 62, 22, 190, 96, 35, 193, 59, 105, 210, 252, 189, 0, 216, 167, 186, 200, 40, 160, 188, 234, 209, 12, 190, 187, 43, 23, 62, 86, 88, 17, 190, 240, 184, 117, 188, 244, 81, 182, 189, 62, 145, 177, 61, 140, 189, 139, 61, 38, 172, 238, 189, 154, 178, 29, 190, 104, 118, 192, 60, 132, 101, 38, 190, 128, 63, 113, 189, 109, 223, 170, 188, 52, 181, 1, 62, 72, 239, 33, 190, 26, 240, 177, 186, 182, 142, 29, 62, 96, 87, 128, 59, 112, 152, 205, 188, 191, 170, 24, 62, 43, 76, 239, 61, 110, 242, 160, 61, 49, 142, 0, 190, 169, 171, 54, 62, 151, 120, 117, 189, 109, 105, 52, 60, 62, 151, 213, 189, 37, 170, 169, 189, 87, 100, 22, 62, 177, 12, 156, 61, 39, 80, 237, 187, 220, 1, 52, 62, 237, 156, 188, 60, 157, 209, 11, 62, 198, 191, 162, 60, 204, 147, 188, 189, 138, 90, 196, 61, 159, 150, 7, 62, 36, 37, 20, 190, 23, 37, 197, 189, 102, 252, 219, 61, 112, 167, 23, 62, 98, 106, 170, 61, 80, 17, 10, 189, 17, 234, 219, 61, 98, 165, 128, 61, 125, 253, 11, 189, 253, 114, 116, 189, 163, 124, 108, 61, 85, 56, 105, 61, 135, 34, 235, 60, 175, 84, 16, 189, 149, 249, 157, 189, 165, 159, 151, 61, 224, 180, 50, 62, 246, 196, 64, 62, 202, 206, 187, 61, 178, 94, 61, 61, 238, 40, 174, 61, 226, 225, 246, 61, 83, 192, 34, 190, 204, 34, 192, 188, 224, 100, 140, 59, 174, 4, 43, 62, 142, 183, 150, 61, 64, 28, 198, 60, 140, 234, 224, 59, 133, 89, 203, 61, 64, 13, 140, 61, 58, 37, 41, 62, 203, 138, 160, 189, 169, 169, 219, 189, 119, 96, 1, 62, 2, 6, 241, 61, 25, 142, 215, 188, 147, 162, 20, 189, 209, 130, 201, 60, 114, 60, 49, 189, 117, 191, 150, 189, 16, 50, 80, 62, 8, 34, 197, 188, 131, 123, 229, 189, 26, 241, 251, 61, 224, 54, 157, 58, 132, 27, 71, 62, 99, 29, 18, 62, 247, 194, 8, 190, 180, 44, 38, 62, 118, 70, 5, 62, 145, 93, 227, 61, 26, 255, 195, 189, 17, 126, 168, 61, 164, 124, 96, 189, 157, 240, 135, 59, 22, 139, 127, 189, 43, 104, 19, 62, 26, 11, 206, 59, 155, 142, 38, 62, 71, 193, 251, 189, 87, 208, 34, 190, 0, 88, 223, 59, 205, 47, 33, 190, 163, 42, 15, 62, 203, 172, 83, 189, 164, 41, 154, 189, 32, 48, 140, 59, 205, 167, 205, 187, 160, 139, 46, 62, 39, 36, 42, 188, 60, 111, 2, 190, 205, 80, 23, 60, 147, 1, 242, 61, 99, 7, 30, 62, 9, 211, 189, 189, 141, 25, 165, 60, 176, 27, 62, 188, 111, 227, 241, 60, 223, 79, 28, 62, 225, 106, 23, 62, 250, 47, 202, 61, 143, 83, 50, 61, 147, 155, 65, 62, 47, 165, 173, 189, 121, 164, 190, 189, 155, 117, 218, 189, 229, 144, 107, 61, 112, 209, 37, 188, 105, 21, 32, 62, 15, 178, 7, 62, 208, 50, 197, 60, 192, 116, 121, 188, 153, 220, 134, 189, 175, 32, 143, 189, 245, 212, 6, 62, 50, 120, 70, 62, 145, 97, 9, 190, 114, 8, 44, 62, 55, 227, 11, 190, 154, 30, 211, 189, 24, 127, 156, 60, 16, 129, 72, 60, 139, 102, 52, 62, 224, 78, 90, 188, 146, 108, 43, 62, 180, 92, 15, 190, 152, 195, 32, 190, 237, 25, 33, 62, 238, 183, 162, 61, 234, 165, 243, 61, 99, 212, 179, 189, 32, 190, 3, 61, 78, 69, 252, 61, 234, 148, 43, 190, 189, 199, 161, 189, 184, 85, 14, 190, 200, 41, 252, 60, 68, 104, 19, 190, 175, 103, 17, 62, 81, 52, 200, 189, 33, 186, 35, 190, 6, 48, 210, 61, 20, 26, 134, 61, 55, 97, 15, 62, 9, 105, 198, 61, 252, 24, 199, 189, 2, 146, 92, 189, 77, 237, 127, 189, 8, 121, 37, 190, 192, 165, 182, 187, 254, 210, 200, 61, 127, 249, 28, 190, 65, 162, 178, 189, 72, 237, 214, 189, 194, 11, 7, 190, 35, 176, 32, 190, 60, 27, 119, 61, 181, 165, 209, 189, 244, 162, 206, 61, 154, 46, 190, 61, 179, 172, 230, 61, 220, 244, 142, 61, 75, 117, 46, 190, 141, 203, 23, 190, 165, 173, 155, 189, 78, 44, 13, 190, 9, 202, 23, 189, 167, 119, 41, 190, 15, 7, 28, 62, 75, 98, 23, 62, 96, 243, 190, 187, 36, 77, 10, 61, 14, 237, 33, 190, 147, 248, 180, 189, 172, 86, 255, 189, 167, 123, 28, 190, 95, 19, 122, 59, 61, 181, 51, 190, 207, 45, 40, 61, 240, 9, 222, 188, 104, 33, 12, 190, 152, 97, 177, 188, 110, 216, 217, 189, 130, 164, 24, 190, 25, 196, 37, 62, 219, 30, 240, 188, 84, 88, 65, 61, 103, 253, 224, 189, 223, 159, 29, 189, 24, 130, 97, 189, 205, 241, 19, 62, 195, 100, 206, 189, 98, 68, 245, 189, 11, 163, 43, 61, 71, 177, 137, 59, 201, 13, 37, 190, 238, 42, 175, 186, 204, 166, 127, 61, 251, 162, 50, 189, 171, 211, 7, 62, 135, 184, 101, 61, 234, 254, 243, 61, 121, 110, 255, 189, 210, 202, 241, 61, 195, 88, 253, 189, 217, 104, 8, 190, 117, 118, 24, 62, 96, 152, 29, 61, 67, 0, 249, 189, 232, 166, 39, 190, 200, 47, 169, 188, 56, 5, 249, 60, 49, 230, 232, 60, 120, 177, 211, 60, 38, 186, 160, 61, 124, 161, 41, 62, 65, 238, 29, 62, 88, 210, 206, 189, 142, 147, 225, 61, 76, 84, 189, 189, 121, 206, 232, 61, 17, 116, 38, 62, 231, 172, 31, 62, 33, 9, 9, 61, 206, 139, 117, 189, 72, 144, 47, 189, 77, 224, 222, 61, 16, 35, 229, 61, 205, 141, 193, 189, 105, 204, 118, 60, 216, 241, 38, 190, 88, 250, 112, 60, 144, 46, 36, 189, 84, 47, 228, 189, 7, 221, 212, 189, 192, 172, 199, 188, 78, 210, 134, 61, 238, 46, 33, 190, 60, 112, 15, 189, 175, 235, 253, 189, 148, 4, 5, 189, 172, 255, 124, 61, 220, 64, 52, 190, 203, 21, 52, 62, 96, 233, 42, 61, 224, 19, 194, 189, 234, 25, 190, 61, 26, 152, 150, 189, 104, 253, 187, 188, 33, 165, 1, 62, 92, 177, 54, 62, 64, 108, 179, 59, 136, 211, 164, 189, 2, 69, 6, 190, 248, 65, 102, 61, 91, 10, 48, 190, 132, 217, 98, 62, 185, 241, 134, 187, 160, 148, 1, 189, 90, 139, 29, 62, 160, 184, 42, 62, 246, 15, 55, 61, 18, 28, 252, 61, 90, 71, 161, 61, 200, 120, 35, 188, 160, 189, 252, 187, 115, 130, 31, 189, 125, 49, 248, 189, 173, 152, 193, 60, 240, 183, 227, 189, 233, 30, 16, 62, 236, 220, 17, 62, 64, 87, 151, 61, 226, 1, 205, 61, 62, 72, 223, 61, 166, 11, 241, 188, 209, 209, 243, 61, 52, 179, 71, 61, 26, 14, 147, 188, 17, 61, 50, 62, 196, 181, 40, 189, 151, 186, 32, 61, 34, 87, 88, 62, 209, 143, 71, 62, 115, 105, 95, 61, 238, 72, 10, 62, 217, 91, 27, 62, 24, 117, 49, 61, 71, 129, 176, 189, 198, 15, 53, 190, 47, 65, 62, 62, 172, 246, 189, 60, 183, 132, 78, 62, 22, 96, 217, 189, 247, 6, 41, 189, 74, 24, 104, 60, 252, 45, 143, 189, 114, 199, 54, 190, 84, 27, 1, 62, 32, 132, 95, 188, 160, 14, 193, 59, 154, 24, 45, 61, 252, 245, 40, 190, 102, 208, 221, 189, 111, 116, 37, 61, 26, 26, 164, 61, 69, 178, 36, 190, 16, 155, 14, 190, 70, 159, 177, 189, 241, 84, 231, 189, 19, 11, 4, 62, 233, 229, 98, 62, 164, 130, 68, 189, 231, 173, 245, 187, 203, 182, 12, 61, 237, 155, 47, 62, 247, 45, 112, 189, 28, 20, 48, 189, 117, 61, 0, 62, 206, 209, 132, 61, 122, 134, 154, 61, 68, 47, 44, 62, 33, 51, 53, 190, 19, 52, 33, 190, 108, 77, 175, 189, 46, 68, 117, 60, 197, 84, 120, 189, 139, 18, 138, 189, 226, 218, 193, 61, 139, 86, 20, 62, 236, 40, 219, 189, 224, 81, 6, 188, 25, 44, 29, 62, 245, 224, 203, 61, 61, 127, 44, 62, 87, 41, 24, 187, 120, 217, 45, 62, 38, 26, 225, 61, 152, 80, 172, 188, 107, 44, 48, 190, 98, 0, 114, 61, 20, 21, 82, 189, 126, 60, 207, 61, 229, 43, 34, 190, 139, 33, 0, 190, 216, 88, 41, 62, 208, 11, 21, 190, 46, 197, 47, 61, 86, 148, 17, 189, 99, 136, 44, 190, 75, 141, 58, 61, 239, 194, 8, 190, 224, 142, 148, 61, 146, 156, 209, 189, 49, 154, 81, 60, 216, 255, 130, 61, 68, 111, 39, 190, 251, 37, 49, 62, 123, 125, 161, 61, 19, 28, 30, 190, 200, 58, 235, 61, 1, 93, 148, 189, 228, 220, 166, 188, 145, 80, 139, 61, 173, 106, 38, 62, 56, 15, 50, 190, 110, 146, 224, 61, 82, 115, 166, 61, 130, 146, 29, 190, 0, 56, 75, 187, 231, 164, 55, 62, 138, 40, 90, 62, 235, 189, 165, 189, 242, 47, 222, 189, 116, 215, 135, 61, 18, 34, 156, 189, 88, 87, 226, 60, 192, 71, 79, 60, 191, 117, 213, 61, 130, 116, 165, 61, 81, 81, 116, 189, 62, 39, 22, 190, 152, 247, 129, 60, 197, 178, 36, 62, 14, 126, 223, 61, 146, 21, 41, 190, 8, 51, 123, 189, 195, 185, 195, 61, 106, 19, 47, 189, 106, 165, 204, 188, 213, 32, 149, 60, 41, 115, 36, 62, 228, 235, 26, 189, 14, 173, 246, 189, 240, 236, 237, 189, 126, 121, 250, 189, 25, 226, 39, 190, 6, 130, 142, 189, 81, 195, 47, 62, 79, 80, 165, 61, 206, 141, 7, 190, 142, 96, 128, 61, 228, 255, 213, 189, 254, 241, 25, 189, 208, 197, 20, 188, 132, 255, 226, 189, 17, 148, 213, 60, 73, 236, 12, 62, 104, 181, 167, 60, 240, 209, 138, 188, 184, 178, 55, 190, 196, 131, 244, 61, 86, 202, 239, 61, 220, 243, 41, 190, 137, 244, 169, 188, 113, 247, 99, 189, 138, 219, 219, 61, 128, 204, 59, 61, 154, 228, 42, 62, 221, 30, 128, 188, 198, 126, 130, 189, 232, 34, 23, 190, 0, 161, 30, 62, 142, 104, 212, 61, 0, 205, 31, 61, 128, 238, 73, 187, 86, 18, 133, 189, 0, 33, 189, 187, 234, 147, 131, 189, 140, 47, 17, 190, 218, 64, 45, 190, 221, 11, 3, 62, 107, 140, 210, 61, 224, 125, 80, 189, 96, 31, 27, 61, 117, 53, 159, 189, 130, 197, 33, 190, 193, 10, 42, 62, 33, 85, 158, 189, 170, 147, 148, 61, 36, 46, 23, 62, 219, 207, 188, 189, 83, 161, 21, 62, 12, 13, 171, 189, 139, 242, 105, 188, 84, 232, 98, 61, 192, 194, 68, 187, 130, 45, 199, 61, 192, 22, 26, 189, 11, 233, 159, 61, 90, 45, 125, 61, 130, 241, 189, 61, 188, 71, 203, 61, 58, 195, 36, 190, 168, 13, 53, 188, 148, 67, 1, 190, 76, 14, 28, 61, 168, 234, 211, 188, 181, 101, 12, 190, 188, 61, 148, 189, 70, 188, 180, 61, 208, 61, 195, 61, 40, 136, 76, 189, 79, 108, 66, 61, 234, 133, 209, 189, 166, 176, 16, 190, 56, 183, 133, 188, 160, 204, 115, 60, 46, 74, 107, 189, 244, 54, 115, 61, 64, 231, 181, 187, 109, 80, 23, 62, 125, 187, 46, 190, 64, 201, 211, 60, 54, 86, 218, 61, 223, 34, 222, 188, 181, 235, 3, 190, 208, 115, 20, 61, 215, 217, 8, 190, 233, 140, 228, 189, 194, 155, 178, 61, 222, 38, 170, 61, 30, 236, 238, 189, 197, 63, 196, 189, 46, 185, 184, 189, 229, 45, 128, 61, 55, 14, 19, 62, 0, 48, 4, 190, 34, 255, 227, 61, 31, 200, 26, 62, 47, 170, 55, 189, 76, 189, 7, 190, 0, 58, 127, 187, 180, 99, 4, 190, 0, 130, 178, 188, 93, 43, 26, 190, 36, 123, 109, 189, 46, 208, 236, 61, 132, 120, 11, 62, 144, 11, 158, 187, 123, 74, 43, 190, 70, 221, 146, 188, 211, 68, 157, 189, 223, 113, 31, 190, 109, 231, 201, 189, 17, 214, 129, 59, 23, 238, 90, 62, 219, 22, 30, 62, 208, 94, 201, 61, 229, 234, 168, 61, 136, 82, 57, 61, 242, 123, 134, 61, 237, 235, 218, 61, 38, 228, 212, 189, 208, 63, 2, 60, 110, 225, 51, 61, 84, 155, 96, 60, 226, 208, 179, 189, 164, 242, 18, 190, 14, 234, 179, 189, 70, 8, 43, 62, 64, 25, 214, 187, 196, 143, 91, 62, 91, 29, 249, 189, 38, 228, 35, 188, 211, 251, 9, 190, 194, 54, 228, 61, 180, 181, 2, 62, 43, 72, 114, 189, 212, 216, 11, 190, 79, 75, 176, 189, 176, 170, 37, 190, 251, 211, 50, 62, 94, 140, 166, 61, 103, 7, 25, 62, 205, 153, 2, 62, 110, 66, 189, 61, 205, 83, 138, 189, 211, 174, 24, 61, 195, 96, 133, 60, 139, 140, 94, 189, 142, 229, 95, 62, 76, 99, 99, 61, 98, 139, 185, 189, 132, 166, 253, 189, 118, 129, 39, 190, 246, 153, 43, 62, 248, 255, 240, 189, 47, 125, 223, 61, 252, 194, 50, 61, 32, 172, 162, 61, 192, 64, 94, 59, 8, 23, 237, 60, 84, 86, 135, 61, 15, 74, 140, 59, 86, 156, 237, 61, 226, 116, 177, 59, 166, 189, 153, 189, 188, 6, 46, 189, 176, 149, 57, 61, 70, 74, 166, 189, 48, 149, 84, 61, 254, 104, 123, 189, 206, 5, 170, 61, 202, 120, 217, 61, 188, 170, 20, 189, 196, 178, 71, 61, 230, 134, 224, 61, 160, 216, 21, 61, 95, 98, 65, 190, 131, 76, 149, 61, 100, 157, 78, 189, 83, 244, 145, 189, 220, 36, 124, 189, 242, 2, 226, 189, 187, 117, 18, 62, 162, 231, 11, 60, 132, 139, 2, 190, 138, 223, 23, 190, 120, 99, 148, 60, 225, 198, 12, 62, 113, 37, 36, 62, 143, 199, 44, 190, 242, 82, 203, 189, 173, 166, 6, 190, 224, 27, 123, 61, 65, 193, 2, 62, 196, 139, 107, 61, 4, 85, 196, 189, 240, 231, 95, 190, 200, 194, 214, 60, 222, 129, 67, 62, 14, 133, 197, 61, 94, 104, 235, 189, 21, 237, 193, 189, 73, 194, 3, 190, 100, 116, 28, 61, 10, 47, 14, 190, 128, 166, 130, 60, 83, 46, 133, 189, 146, 209, 23, 62, 136, 237, 250, 189, 49, 218, 171, 61, 179, 135, 192, 61, 147, 164, 65, 189, 47, 224, 40, 62, 151, 137, 38, 62, 164, 152, 8, 190, 116, 56, 7, 61, 0, 195, 161, 189, 85, 157, 233, 189, 166, 170, 162, 189, 104, 12, 225, 189, 40, 91, 149, 60, 117, 63, 51, 62, 145, 173, 61, 190, 49, 46, 28, 190, 244, 128, 108, 61, 52, 211, 27, 189, 47, 2, 135, 61, 141, 32, 13, 62, 94, 165, 48, 190, 214, 35, 245, 189, 40, 224, 245, 60, 85, 59, 31, 62, 76, 124, 70, 189, 98, 128, 76, 62, 44, 219, 221, 189, 76, 77, 205, 61, 83, 163, 43, 190, 83, 220, 14, 62, 128, 18, 23, 188, 218, 100, 235, 61, 69, 232, 40, 188, 84, 239, 97, 62, 251, 131, 46, 62, 68, 87, 154, 189, 14, 101, 38, 190, 58, 227, 243, 61, 7, 152, 25, 62, 46, 7, 222, 61, 69, 100, 251, 61, 24, 215, 154, 60, 138, 56, 45, 62, 176, 20, 191, 61, 27, 252, 96, 61, 67, 84, 60, 59, 89, 237, 2, 62, 213, 140, 14, 189, 43, 206, 21, 190, 6, 83, 36, 62, 139, 97, 35, 61, 195, 38, 132, 188, 119, 171, 64, 61, 4, 74, 123, 61, 25, 12, 72, 189, 62, 15, 0, 190, 81, 36, 135, 188, 137, 17, 229, 189, 165, 227, 237, 188, 169, 110, 104, 61, 64, 158, 184, 187, 105, 187, 62, 61, 210, 41, 204, 61, 118, 135, 255, 61, 12, 3, 46, 189, 116, 191, 7, 62, 144, 89, 54, 62, 172, 76, 30, 62, 139, 109, 138, 189, 87, 40, 211, 187, 135, 38, 223, 61, 139, 169, 25, 190, 190, 45, 174, 189, 18, 241, 134, 61, 124, 35, 61, 62, 117, 168, 251, 189, 1, 84, 6, 62, 218, 21, 219, 188, 245, 6, 141, 188, 110, 159, 235, 61, 79, 1, 49, 189, 81, 153, 59, 62, 37, 158, 6, 62, 37, 148, 206, 61, 123, 156, 28, 62, 237, 129, 7, 62, 28, 175, 19, 62, 58, 80, 26, 62, 186, 69, 255, 61, 44, 94, 195, 189, 232, 191, 148, 60, 228, 85, 223, 189, 186, 4, 254, 61, 16, 67, 240, 60, 145, 134, 141, 189, 131, 239, 183, 61, 108, 158, 210, 189, 134, 144, 245, 189, 246, 72, 92, 189, 157, 22, 193, 61, 184, 230, 206, 188, 216, 19, 208, 60, 182, 44, 18, 190, 35, 153, 135, 61, 94, 208, 144, 61, 70, 106, 46, 190, 214, 176, 26, 61, 37, 232, 188, 189, 220, 122, 226, 61, 150, 64, 252, 60, 84, 116, 15, 190, 133, 62, 48, 190, 87, 183, 206, 189, 162, 8, 31, 61, 96, 23, 207, 187, 100, 251, 41, 189, 158, 60, 250, 60, 140, 123, 155, 189, 135, 243, 7, 190, 47, 3, 73, 189, 240, 72, 222, 60, 107, 173, 9, 62, 203, 134, 2, 190, 140, 111, 123, 189, 207, 46, 1, 62, 42, 98, 133, 61, 125, 10, 246, 189, 244, 218, 152, 61, 86, 61, 56, 189, 162, 113, 189, 189, 16, 241, 211, 61, 92, 125, 218, 189, 48, 9, 239, 60, 234, 221, 217, 189, 100, 143, 15, 189, 192, 80, 48, 60, 151, 170, 148, 60, 69, 122, 218, 61, 183, 247, 190, 188, 1, 141, 37, 62, 48, 179, 140, 61, 45, 49, 10, 62, 113, 190, 70, 189, 23, 61, 245, 189, 130, 243, 1, 190, 22, 22, 226, 61, 73, 211, 203, 61, 101, 186, 14, 62, 32, 137, 169, 59, 206, 232, 169, 61, 170, 120, 199, 61, 188, 195, 248, 189, 103, 146, 9, 190, 198, 77, 90, 62, 191, 40, 54, 62, 197, 193, 75, 62, 70, 162, 157, 189, 248, 167, 159, 61, 255, 75, 218, 189, 96, 153, 138, 60, 203, 91, 15, 190, 164, 18, 224, 188, 200, 148, 151, 60, 246, 148, 48, 62, 244, 154, 19, 62, 70, 168, 142, 189, 64, 9, 83, 188, 155, 168, 203, 61, 43, 218, 236, 61, 37, 64, 215, 189, 45, 70, 103, 190, 248, 24, 6, 190, 108, 149, 176, 188, 24, 170, 25, 62, 51, 167, 12, 190, 19, 146, 198, 189, 106, 23, 192, 61, 121, 11, 224, 189, 119, 214, 42, 62, 167, 118, 23, 62, 178, 85, 244, 61, 104, 216, 193, 60, 31, 101, 19, 190, 4, 139, 80, 62, 199, 1, 206, 187, 106, 29, 134, 61, 69, 121, 63, 62, 14, 209, 17, 190, 233, 208, 4, 62, 233, 57, 236, 189, 96, 183, 140, 60, 191, 246, 26, 190, 42, 117, 187, 189, 24, 27, 96, 61, 6, 190, 11, 190, 244, 135, 194, 61, 240, 213, 201, 61, 89, 80, 180, 189, 53, 101, 180, 60, 145, 77, 210, 188, 105, 123, 234, 61, 218, 119, 252, 189, 240, 160, 75, 190, 226, 141, 21, 189, 193, 53, 36, 62, 52, 250, 214, 61, 157, 220, 26, 190, 90, 95, 139, 61, 36, 210, 8, 62, 201, 61, 56, 190, 29, 56, 1, 190, 227, 124, 22, 61, 144, 204, 92, 190, 64, 253, 214, 59, 210, 72, 248, 61, 122, 109, 226, 61, 27, 1, 51, 62, 6, 0, 54, 62, 193, 79, 23, 62, 122, 95, 206, 61, 44, 225, 27, 61, 101, 31, 144, 189, 56, 160, 15, 190, 185, 154, 140, 61, 133, 136, 255, 189, 75, 111, 49, 188, 103, 118, 35, 62, 248, 46, 181, 188, 112, 119, 143, 61, 128, 43, 222, 60, 0, 199, 39, 190, 120, 57, 255, 60, 60, 232, 153, 61, 249, 136, 18, 62, 161, 151, 5, 62, 211, 48, 164, 61, 170, 104, 30, 190, 77, 85, 183, 61, 96, 119, 77, 189, 210, 170, 253, 61, 88, 231, 60, 61, 251, 84, 60, 188, 175, 174, 7, 62, 89, 184, 208, 189, 23, 15, 133, 61, 187, 225, 7, 190, 128, 23, 42, 190, 7, 43, 32, 190, 94, 200, 186, 61, 44, 97, 246, 189, 244, 108, 9, 61, 164, 214, 191, 61, 148, 108, 140, 61, 60, 251, 149, 189, 239, 232, 183, 60, 37, 239, 11, 62, 251, 145, 49, 62, 138, 60, 254, 189, 46, 143, 73, 62, 97, 192, 80, 189, 32, 221, 42, 60, 35, 59, 152, 59, 145, 101, 206, 60, 184, 176, 164, 60, 163, 172, 11, 190, 66, 96, 178, 61, 121, 203, 74, 60, 52, 3, 15, 190, 167, 36, 179, 61, 194, 143, 12, 62, 63, 33, 70, 62, 30, 193, 234, 186, 180, 93, 7, 190, 66, 251, 125, 189, 242, 188, 84, 61, 5, 229, 39, 190, 170, 150, 3, 190, 134, 188, 149, 61, 224, 108, 157, 59, 52, 0, 222, 189, 122, 66, 28, 190, 235, 125, 11, 60, 164, 111, 187, 189, 173, 200, 204, 189, 153, 199, 10, 190, 100, 59, 166, 188, 82, 55, 184, 61, 214, 32, 108, 189, 34, 219, 12, 190, 52, 153, 97, 61, 53, 181, 28, 62, 124, 244, 15, 62, 250, 182, 18, 190, 116, 20, 84, 189, 44, 152, 77, 61, 169, 230, 151, 189, 245, 32, 162, 188, 191, 100, 35, 190, 27, 25, 47, 189, 87, 238, 50, 62, 111, 227, 57, 62, 191, 86, 165, 189, 104, 89, 34, 62, 25, 228, 231, 60, 191, 117, 17, 62, 9, 19, 33, 62, 224, 69, 81, 62, 9, 160, 62, 61, 109, 30, 7, 62, 228, 68, 58, 61, 82, 129, 141, 61, 43, 35, 181, 61, 171, 19, 220, 60, 36, 197, 50, 189, 239, 235, 11, 62, 177, 249, 160, 189, 211, 56, 25, 190, 43, 172, 218, 61, 114, 216, 33, 190, 22, 72, 171, 61, 243, 201, 8, 190, 40, 75, 150, 61, 238, 241, 251, 61, 130, 94, 198, 61, 136, 184, 252, 188, 202, 189, 186, 61, 61, 239, 0, 190, 204, 56, 49, 186, 249, 60, 255, 60, 145, 167, 75, 189, 197, 235, 84, 189, 122, 43, 33, 190, 64, 204, 144, 187, 29, 57, 198, 60, 117, 44, 13, 62, 108, 67, 47, 189, 61, 36, 120, 59, 89, 45, 64, 60, 5, 52, 46, 190, 192, 71, 179, 189, 101, 189, 62, 60, 186, 15, 186, 189, 29, 202, 77, 62, 127, 161, 176, 60, 160, 123, 159, 59, 108, 69, 249, 60, 126, 221, 217, 61, 192, 216, 7, 188, 156, 21, 58, 61, 40, 84, 141, 189, 59, 205, 143, 186, 18, 25, 36, 190, 244, 239, 74, 60, 165, 178, 150, 189, 246, 206, 164, 61, 128, 241, 28, 62, 244, 15, 194, 189, 251, 26, 32, 190, 215, 41, 24, 62, 230, 79, 250, 61, 11, 39, 194, 188, 97, 86, 78, 189, 162, 88, 172, 61, 15, 228, 44, 61, 127, 60, 158, 189, 82, 50, 98, 61, 177, 204, 209, 189, 208, 122, 205, 189, 52, 3, 54, 61, 112, 73, 214, 61, 159, 188, 139, 189, 131, 19, 9, 190, 210, 90, 40, 62, 130, 236, 171, 61, 137, 89, 248, 189, 178, 107, 21, 62, 114, 247, 134, 189, 69, 130, 47, 62, 220, 190, 5, 190, 202, 158, 25, 187, 46, 16, 155, 189, 236, 243, 140, 61, 185, 162, 155, 61, 254, 196, 186, 189, 200, 36, 135, 189, 206, 248, 4, 62, 223, 241, 159, 60, 114, 217, 21, 189, 56, 22, 206, 188, 77, 110, 166, 189, 93, 90, 11, 62, 12, 138, 123, 61, 56, 116, 220, 186, 185, 159, 95, 188, 149, 132, 174, 189, 124, 101, 117, 189, 71, 214, 66, 62, 93, 160, 23, 190, 223, 33, 148, 189, 86, 18, 248, 187, 74, 86, 30, 190, 223, 202, 62, 61, 50, 30, 233, 189, 62, 177, 252, 61, 240, 245, 30, 190, 128, 195, 238, 189, 46, 117, 254, 61, 55, 108, 27, 62, 179, 153, 157, 189, 126, 199, 141, 59, 93, 232, 241, 189, 62, 33, 156, 61, 12, 91, 218, 61, 39, 244, 6, 62, 34, 183, 171, 61, 48, 52, 126, 189, 65, 234, 39, 190, 2, 191, 74, 190, 208, 124, 66, 188, 109, 183, 45, 62, 7, 180, 251, 61, 244, 160, 53, 189, 94, 99, 7, 190, 154, 36, 15, 190, 185, 19, 70, 62, 105, 235, 154, 189, 253, 51, 151, 189, 24, 163, 62, 61, 39, 82, 132, 189, 134, 122, 70, 61, 64, 47, 60, 61, 77, 199, 194, 189, 197, 184, 21, 62, 197, 29, 40, 190, 51, 70, 233, 61, 194, 34, 174, 61, 138, 30, 1, 62, 26, 223, 199, 61, 183, 232, 77, 189, 177, 144, 176, 188, 144, 111, 101, 61, 128, 189, 73, 60, 16, 195, 167, 61, 2, 2, 252, 61, 181, 205, 52, 62, 65, 180, 147, 60, 56, 21, 72, 61, 62, 120, 105, 189, 146, 83, 48, 190, 168, 189, 202, 61, 167, 196, 128, 60, 90, 159, 76, 62, 190, 125, 63, 62, 42, 142, 147, 61, 94, 190, 31, 190, 116, 38, 175, 59, 192, 43, 116, 61, 62, 53, 19, 62, 9, 133, 4, 189, 144, 217, 46, 189, 34, 143, 141, 189, 24, 53, 55, 62, 44, 231, 241, 189, 165, 135, 153, 189, 162, 111, 64, 61, 63, 7, 55, 190, 126, 201, 166, 61, 78, 36, 75, 62, 154, 14, 107, 188, 180, 11, 178, 189, 163, 33, 209, 61, 30, 65, 167, 189, 217, 54, 147, 189, 61, 210, 134, 188, 28, 223, 5, 190, 123, 104, 33, 62, 180, 105, 128, 61, 187, 118, 32, 62, 212, 49, 111, 189, 248, 67, 159, 189, 71, 165, 9, 62, 70, 156, 156, 61, 16, 230, 233, 188, 178, 43, 168, 61, 242, 0, 214, 61, 42, 185, 175, 61, 118, 209, 120, 189, 41, 144, 18, 189, 16, 5, 26, 189, 72, 156, 212, 189, 131, 248, 202, 188, 161, 103, 252, 188, 149, 57, 16, 60, 223, 137, 247, 189, 44, 167, 192, 189, 140, 152, 189, 61, 89, 56, 23, 62, 64, 128, 26, 62, 16, 247, 232, 189, 144, 69, 134, 61, 18, 4, 219, 189, 68, 175, 174, 189, 104, 7, 191, 188, 1, 41, 26, 190, 166, 41, 193, 61, 154, 29, 0, 190, 200, 85, 195, 60, 208, 219, 28, 62, 32, 213, 91, 189, 180, 135, 120, 189, 96, 143, 162, 61, 35, 157, 31, 62, 195, 86, 213, 189, 165, 159, 40, 62, 189, 9, 233, 61, 105, 196, 236, 189, 114, 247, 197, 189, 6, 106, 69, 61, 131, 101, 31, 61, 78, 187, 246, 189, 42, 133, 75, 189, 0, 184, 179, 61, 171, 252, 234, 61, 174, 189, 131, 189, 202, 250, 227, 61, 168, 162, 134, 189, 175, 194, 74, 62, 244, 185, 37, 190, 32, 166, 254, 60, 148, 187, 39, 189, 231, 237, 14, 61, 94, 187, 238, 61, 236, 31, 48, 190, 138, 30, 222, 61, 131, 29, 47, 62, 96, 137, 147, 187, 23, 41, 242, 189, 102, 230, 6, 61, 85, 126, 18, 61, 250, 212, 204, 60, 128, 134, 80, 62, 66, 176, 178, 189, 134, 19, 4, 190, 152, 176, 100, 189, 210, 209, 3, 62, 194, 11, 157, 189, 64, 19, 91, 61, 104, 111, 151, 60, 119, 68, 202, 60, 42, 50, 190, 61, 155, 210, 198, 189, 46, 97, 19, 62, 36, 88, 203, 187, 226, 77, 150, 61, 80, 190, 241, 188, 50, 13, 18, 61, 180, 225, 23, 190, 104, 206, 117, 189, 169, 137, 96, 61, 148, 74, 25, 190, 253, 23, 195, 189, 63, 154, 62, 190, 240, 162, 92, 61, 57, 196, 194, 61, 233, 84, 254, 61, 254, 131, 115, 189, 95, 50, 31, 190, 254, 130, 130, 61, 175, 174, 4, 62, 62, 195, 191, 189, 0, 132, 170, 60, 0, 242, 73, 186, 1, 75, 146, 189, 176, 100, 60, 190, 70, 71, 241, 61, 156, 109, 205, 189, 215, 57, 147, 189, 15, 139, 177, 189, 165, 152, 38, 189, 206, 236, 220, 61, 104, 76, 184, 189, 200, 174, 42, 190, 231, 214, 216, 60, 39, 3, 175, 188, 215, 179, 12, 62, 14, 244, 224, 187, 192, 75, 155, 188, 53, 85, 50, 190, 64, 202, 49, 61, 70, 147, 89, 61, 60, 122, 21, 61, 124, 52, 44, 190, 184, 62, 53, 189, 160, 214, 229, 61, 140, 178, 248, 189, 80, 250, 0, 61, 204, 248, 64, 190, 70, 69, 194, 189, 192, 218, 11, 188, 240, 176, 91, 189, 117, 173, 43, 62, 10, 28, 11, 190, 218, 240, 105, 189, 128, 97, 192, 189, 108, 85, 108, 61, 228, 249, 38, 189, 225, 234, 115, 61, 82, 135, 46, 190, 141, 166, 16, 62, 211, 132, 36, 62, 254, 114, 189, 61, 64, 27, 46, 60, 181, 113, 41, 190, 196, 218, 61, 189, 118, 193, 193, 61, 199, 202, 25, 62, 87, 201, 21, 190, 76, 132, 2, 61, 142, 140, 202, 61, 21, 216, 184, 189, 112, 84, 120, 188, 102, 23, 243, 61, 83, 198, 176, 189, 154, 136, 55, 61, 180, 90, 39, 190, 58, 186, 238, 61, 128, 1, 45, 61, 12, 19, 71, 189, 6, 80, 141, 61, 87, 158, 216, 189, 71, 125, 30, 62, 160, 125, 62, 188, 153, 86, 4, 62, 173, 6, 25, 190, 116, 170, 148, 61, 86, 120, 204, 189, 72, 224, 189, 60, 192, 85, 59, 60, 16, 163, 105, 61, 24, 47, 25, 190, 100, 241, 234, 189, 48, 50, 23, 190, 171, 186, 195, 189, 43, 89, 49, 62, 232, 106, 241, 60, 112, 10, 14, 62, 241, 106, 40, 190, 2, 132, 36, 190, 184, 219, 163, 189, 194, 12, 153, 61, 252, 195, 65, 189, 33, 123, 176, 189, 112, 18, 5, 190, 78, 137, 187, 189, 50, 205, 224, 61, 56, 238, 117, 61, 240, 18, 7, 190, 253, 98, 1, 62, 84, 20, 239, 61, 226, 124, 209, 61, 22, 101, 153, 189, 30, 62, 185, 61, 40, 44, 103, 61, 204, 75, 56, 61, 97, 188, 4, 62, 209, 229, 206, 189, 157, 140, 50, 190, 214, 129, 2, 189, 244, 170, 80, 61, 104, 59, 216, 60, 68, 183, 81, 189, 132, 76, 72, 189, 58, 5, 137, 189, 195, 206, 23, 60, 218, 124, 90, 189, 104, 25, 83, 61, 212, 49, 148, 61, 124, 208, 215, 189, 191, 80, 10, 190, 30, 129, 185, 187, 178, 160, 75, 62, 88, 181, 96, 61, 78, 131, 61, 189, 239, 108, 94, 62, 194, 201, 73, 61, 214, 96, 181, 189, 22, 4, 228, 59, 230, 70, 12, 62, 80, 91, 35, 189, 196, 217, 91, 189, 146, 72, 47, 62, 41, 231, 22, 62, 39, 72, 198, 189, 160, 172, 205, 59, 225, 121, 229, 61, 85, 220, 211, 188, 80, 60, 182, 61, 169, 139, 3, 62, 12, 3, 182, 61, 115, 214, 130, 188, 84, 121, 85, 61, 164, 55, 122, 61, 200, 217, 210, 188, 232, 42, 165, 189, 209, 148, 210, 61, 59, 84, 217, 60, 230, 115, 182, 61, 152, 139, 18, 62, 150, 149, 60, 62, 175, 81, 35, 62, 65, 202, 203, 61, 128, 88, 176, 61, 182, 111, 45, 62, 166, 217, 151, 61, 215, 110, 4, 189, 188, 136, 247, 60, 37, 167, 176, 189, 207, 216, 0, 62, 21, 158, 214, 61, 49, 103, 9, 62, 151, 1, 50, 62, 121, 59, 152, 189, 62, 48, 214, 61, 50, 27, 20, 62, 101, 9, 223, 61, 62, 107, 204, 61, 79, 169, 158, 61, 82, 58, 199, 61, 218, 75, 157, 61, 71, 185, 229, 61, 169, 61, 175, 189, 133, 139, 47, 62, 130, 187, 150, 61, 176, 93, 124, 60, 244, 214, 197, 189, 42, 94, 0, 62, 55, 31, 221, 61, 142, 151, 224, 189, 69, 207, 240, 189, 51, 56, 32, 62, 73, 147, 24, 190, 0, 137, 207, 60, 63, 63, 17, 62, 198, 130, 175, 61, 79, 144, 143, 60, 238, 221, 34, 60, 58, 104, 12, 190, 246, 148, 56, 62, 68, 140, 35, 190, 152, 122, 159, 61, 192, 9, 184, 189, 155, 125, 43, 62, 92, 94, 27, 190, 253, 69, 185, 61, 190, 0, 165, 61, 127, 66, 10, 62, 6, 240, 1, 62, 112, 85, 205, 188, 41, 169, 165, 58, 162, 166, 192, 61, 148, 208, 115, 189, 40, 240, 181, 188, 217, 207, 134, 189, 9, 52, 3, 189, 46, 18, 128, 61, 129, 103, 147, 189, 234, 131, 220, 189, 2, 176, 197, 189, 128, 113, 44, 62, 68, 136, 3, 190, 73, 9, 149, 189, 9, 6, 205, 189, 95, 84, 0, 62, 136, 164, 248, 61, 186, 5, 137, 61, 203, 189, 9, 62, 139, 34, 78, 61, 166, 234, 3, 190, 44, 67, 96, 61, 110, 46, 142, 189, 117, 218, 94, 62, 133, 155, 248, 61, 251, 48, 32, 61, 228, 214, 72, 61, 236, 10, 209, 189, 101, 222, 20, 62, 53, 26, 214, 61, 48, 218, 0, 60, 233, 190, 2, 62, 134, 1, 245, 61, 252, 194, 252, 189, 206, 116, 148, 61, 80, 151, 191, 188, 131, 200, 28, 61, 1, 161, 71, 62, 3, 222, 81, 61, 119, 47, 174, 61, 210, 160, 0, 62, 68, 26, 245, 189, 224, 133, 54, 189, 166, 139, 68, 190, 96, 227, 245, 59, 157, 193, 24, 62, 80, 216, 31, 189, 99, 198, 120, 189, 84, 78, 224, 189, 22, 158, 180, 61, 116, 108, 232, 189, 127, 63, 218, 61, 142, 58, 240, 61, 183, 142, 20, 61, 194, 239, 148, 60, 94, 69, 180, 188, 97, 241, 189, 60, 74, 234, 203, 188, 36, 115, 72, 62, 189, 192, 5, 62, 251, 203, 239, 61, 122, 143, 118, 61, 31, 208, 162, 61, 148, 40, 78, 188, 100, 153, 24, 189, 208, 200, 7, 62, 42, 148, 36, 189, 206, 164, 162, 189, 104, 211, 185, 60, 255, 211, 148, 61, 90, 128, 48, 62, 72, 18, 39, 61, 213, 3, 246, 61, 59, 197, 153, 189, 100, 50, 196, 189, 254, 29, 40, 190, 107, 243, 36, 62, 139, 193, 179, 189, 39, 97, 46, 188, 24, 168, 25, 62, 121, 183, 23, 61, 218, 210, 254, 189, 117, 193, 11, 190, 89, 80, 156, 61, 6, 157, 168, 61, 210, 20, 71, 59, 117, 52, 158, 189, 216, 144, 179, 188, 79, 166, 174, 188, 167, 150, 133, 188, 192, 224, 234, 188, 151, 189, 205, 189, 57, 246, 11, 190, 246, 102, 157, 61, 174, 55, 233, 61, 123, 237, 134, 189, 140, 229, 4, 190, 255, 80, 149, 61, 214, 120, 106, 61, 58, 143, 161, 189, 68, 251, 173, 189, 60, 95, 13, 61, 145, 53, 210, 189, 216, 107, 25, 61, 249, 62, 131, 189, 60, 62, 61, 190, 183, 160, 60, 190, 74, 210, 4, 189, 168, 150, 166, 187, 239, 189, 47, 62, 172, 238, 82, 62, 235, 10, 38, 62, 0, 133, 139, 61, 56, 158, 146, 61, 60, 227, 151, 188, 230, 33, 45, 60, 177, 117, 185, 61, 81, 225, 172, 59, 92, 178, 100, 189, 205, 91, 124, 189, 196, 184, 6, 62, 30, 108, 182, 61, 218, 104, 174, 189, 192, 93, 91, 59, 133, 59, 34, 189, 170, 222, 179, 61, 41, 239, 10, 62, 79, 216, 37, 62, 230, 161, 132, 61, 102, 241, 13, 62, 195, 47, 39, 190, 144, 189, 140, 188, 15, 94, 149, 189, 128, 96, 153, 188, 12, 227, 65, 62, 216, 57, 144, 61, 248, 215, 212, 188, 32, 42, 13, 61, 176, 162, 239, 189, 238, 216, 237, 61, 0, 11, 93, 189, 239, 160, 141, 61, 20, 38, 221, 61, 187, 80, 2, 62, 147, 213, 37, 190, 113, 156, 43, 62, 185, 170, 8, 62, 109, 91, 61, 189, 59, 217, 60, 61, 32, 149, 16, 62, 203, 255, 34, 62, 237, 92, 79, 189, 204, 82, 248, 61, 95, 213, 10, 62, 156, 91, 210, 189, 20, 39, 51, 190, 107, 10, 240, 61, 194, 8, 104, 189, 214, 107, 111, 189, 240, 43, 82, 189, 32, 236, 148, 189, 197, 51, 50, 62, 230, 88, 115, 189, 248, 54, 21, 189, 192, 29, 38, 61, 180, 25, 8, 61, 220, 48, 163, 189, 134, 91, 61, 189, 91, 245, 7, 189, 180, 185, 11, 61, 20, 181, 62, 189, 107, 2, 246, 61, 202, 212, 75, 61, 69, 152, 28, 190, 185, 175, 252, 61, 234, 233, 1, 62, 74, 211, 193, 61, 152, 208, 37, 61, 191, 15, 220, 61, 8, 86, 30, 188, 162, 241, 226, 61, 104, 217, 24, 189, 13, 42, 67, 59, 212, 183, 11, 189, 132, 242, 185, 61, 57, 233, 0, 190, 153, 98, 138, 61, 136, 28, 185, 188, 25, 12, 202, 189, 169, 155, 150, 61, 234, 137, 21, 190, 194, 85, 158, 188, 64, 175, 238, 59, 129, 55, 23, 62, 34, 63, 169, 61, 24, 51, 30, 62, 49, 3, 0, 62, 63, 250, 65, 190, 247, 125, 71, 61, 171, 201, 39, 62, 198, 37, 254, 188, 158, 126, 15, 190, 40, 146, 111, 189, 90, 39, 249, 61, 65, 193, 148, 60, 57, 161, 245, 189, 10, 13, 92, 189, 93, 136, 55, 190, 196, 104, 245, 188, 212, 44, 78, 60, 80, 55, 151, 189, 137, 50, 207, 188, 199, 232, 14, 62, 8, 67, 31, 190, 133, 45, 141, 60, 96, 152, 144, 187, 107, 124, 244, 61, 89, 26, 222, 61, 224, 184, 15, 190, 54, 164, 234, 61, 14, 144, 15, 62, 19, 142, 26, 62, 31, 95, 85, 61, 67, 6, 31, 189, 0, 57, 156, 188, 166, 192, 145, 61, 194, 57, 172, 189, 128, 75, 34, 60, 198, 3, 22, 62, 64, 41, 57, 188, 58, 240, 153, 61, 3, 239, 49, 62, 38, 21, 239, 61, 17, 29, 222, 188, 159, 101, 161, 188, 87, 228, 231, 189, 112, 143, 244, 61, 160, 19, 251, 187, 210, 129, 237, 61, 108, 7, 7, 190, 64, 185, 242, 189, 65, 244, 6, 190, 211, 45, 83, 60, 221, 193, 31, 190, 52, 153, 32, 190, 39, 140, 169, 188, 60, 61, 66, 189, 127, 43, 20, 189, 195, 250, 168, 61, 16, 223, 59, 61, 165, 233, 231, 61, 0, 142, 254, 60, 160, 221, 143, 61, 17, 75, 38, 62, 171, 234, 165, 189, 47, 236, 246, 61, 246, 186, 190, 189, 32, 166, 235, 189, 72, 156, 43, 190, 170, 173, 159, 189, 128, 9, 215, 186, 0, 255, 237, 186, 44, 87, 109, 61, 202, 184, 109, 189, 8, 83, 163, 188, 94, 74, 158, 188, 121, 59, 67, 61, 161, 117, 73, 188, 225, 110, 225, 61, 27, 25, 71, 61, 32, 123, 246, 188, 116, 90, 49, 190, 181, 52, 82, 61, 90, 129, 40, 60, 247, 15, 49, 190, 238, 50, 195, 60, 173, 254, 86, 189, 81, 101, 40, 61, 124, 40, 116, 61, 154, 104, 226, 188, 3, 181, 212, 60, 108, 99, 28, 190, 2, 154, 164, 61, 105, 26, 19, 62, 92, 126, 1, 62, 32, 103, 5, 62, 31, 219, 11, 62, 193, 38, 31, 62, 224, 131, 192, 187, 194, 185, 32, 190, 181, 242, 12, 62, 19, 81, 227, 189, 170, 233, 35, 190, 157, 203, 69, 189, 109, 237, 36, 62, 222, 140, 34, 190, 70, 149, 174, 61, 115, 147, 224, 189, 206, 107, 122, 189, 221, 202, 21, 190, 106, 41, 29, 190, 154, 22, 248, 61, 224, 36, 94, 188, 218, 26, 102, 189, 128, 138, 182, 189, 100, 5, 74, 61, 116, 229, 16, 61, 236, 159, 39, 190, 191, 160, 128, 189, 237, 177, 0, 62, 176, 155, 136, 189, 91, 87, 222, 189, 146, 216, 190, 61, 101, 46, 19, 190, 142, 113, 250, 61, 170, 141, 241, 61, 88, 92, 143, 189, 64, 203, 250, 60, 174, 237, 12, 190, 55, 107, 34, 190, 224, 203, 156, 188, 225, 210, 188, 189, 208, 201, 55, 188, 120, 192, 119, 189, 52, 33, 4, 190, 34, 219, 241, 61, 240, 217, 122, 61, 22, 110, 233, 61, 89, 100, 46, 190, 177, 142, 32, 190, 236, 35, 34, 189, 92, 66, 46, 190, 14, 102, 15, 190, 104, 218, 175, 188, 4, 158, 36, 189, 56, 136, 187, 188, 145, 102, 25, 190, 82, 240, 144, 61, 114, 72, 254, 189, 249, 107, 201, 189, 36, 218, 74, 61, 19, 30, 38, 190, 28, 68, 61, 189, 110, 210, 254, 61, 158, 0, 139, 189, 54, 244, 242, 61, 144, 170, 65, 189, 238, 1, 213, 61, 164, 69, 21, 190, 193, 59, 201, 189, 181, 119, 11, 62, 96, 21, 227, 60, 50, 89, 218, 61, 176, 164, 30, 188, 47, 237, 14, 62, 186, 168, 35, 190, 5, 48, 29, 62, 160, 214, 179, 59, 184, 31, 133, 60, 20, 109, 59, 189, 6, 73, 211, 61, 195, 235, 10, 62, 152, 72, 60, 189, 10, 112, 205, 61, 216, 10, 224, 189, 208, 21, 235, 189, 160, 250, 74, 189, 184, 229, 48, 61, 134, 104, 183, 61, 42, 223, 231, 61, 162, 175, 214, 61, 168, 161, 14, 190, 96, 166, 109, 60, 96, 116, 22, 61, 22, 239, 144, 61, 93, 255, 171, 189, 66, 76, 235, 61, 160, 248, 101, 60, 239, 38, 143, 189, 222, 79, 222, 61, 52, 250, 20, 189, 167, 131, 169, 189, 106, 117, 152, 61, 21, 54, 133, 189, 162, 0, 200, 61, 147, 239, 181, 189, 132, 25, 157, 189, 73, 251, 26, 62, 232, 88, 37, 189, 64, 68, 54, 189, 141, 61, 47, 62, 131, 109, 236, 189, 153, 215, 41, 190, 122, 0, 163, 61, 49, 18, 197, 189, 76, 67, 126, 61, 228, 229, 53, 189, 48, 17, 34, 189, 114, 97, 236, 189, 14, 46, 179, 61, 135, 31, 37, 190, 76, 32, 19, 190, 128, 118, 221, 60, 184, 67, 158, 60, 222, 89, 245, 61, 220, 144, 81, 189, 80, 137, 205, 60, 42, 21, 178, 189, 192, 83, 244, 188, 70, 193, 245, 61, 64, 63, 60, 60, 188, 202, 38, 61, 128, 55, 154, 187, 199, 129, 25, 62, 176, 154, 9, 61, 155, 9, 241, 189, 242, 194, 164, 61, 189, 14, 32, 62, 32, 78, 165, 188, 117, 46, 11, 62, 80, 248, 55, 61, 189, 54, 27, 190, 144, 67, 85, 60, 48, 253, 144, 188, 72, 175, 249, 60, 240, 231, 233, 60, 107, 33, 142, 189, 228, 251, 156, 61, 167, 176, 179, 189, 72, 252, 209, 188, 181, 164, 24, 62, 252, 5, 209, 189, 6, 174, 217, 61, 192, 84, 220, 60, 44, 83, 40, 190, 201, 164, 189, 189, 59, 156, 17, 62, 121, 90, 175, 188, 127, 49, 69, 188, 119, 72, 18, 190, 102, 66, 228, 61, 50, 247, 20, 190, 42, 195, 25, 62, 92, 1, 79, 61, 254, 145, 151, 189, 233, 12, 245, 61, 123, 213, 166, 189, 214, 158, 252, 189, 22, 147, 30, 190, 140, 241, 154, 189, 41, 168, 92, 61, 190, 72, 56, 62, 167, 31, 22, 62, 13, 41, 19, 189, 64, 175, 178, 189, 224, 57, 5, 61, 46, 128, 69, 62, 241, 62, 217, 189, 106, 105, 196, 189, 160, 57, 118, 189, 215, 200, 49, 188, 160, 33, 150, 189, 143, 137, 103, 189, 68, 46, 144, 189, 154, 224, 99, 61, 183, 8, 25, 62, 192, 19, 190, 61, 75, 243, 35, 61, 55, 198, 160, 61, 241, 142, 120, 61, 107, 24, 19, 62, 111, 198, 36, 190, 93, 107, 13, 62, 149, 117, 32, 189, 96, 29, 190, 60, 202, 158, 177, 189, 127, 